{"version": "1.0", "truncation": null, "padding": null, "added_tokens": [{"id": 0, "content": "<|bos|>", "single_word": false, "lstrip": false, "rstrip": false, "normalized": false, "special": true}, {"id": 1, "content": "<|user_start|>", "single_word": false, "lstrip": false, "rstrip": false, "normalized": false, "special": true}, {"id": 2, "content": "<|user_end|>", "single_word": false, "lstrip": false, "rstrip": false, "normalized": false, "special": true}, {"id": 3, "content": "<|assistant_start|>", "single_word": false, "lstrip": false, "rstrip": false, "normalized": false, "special": true}, {"id": 4, "content": "<|assistant_end|>", "single_word": false, "lstrip": false, "rstrip": false, "normalized": false, "special": true}, {"id": 5, "content": "<|python_start|>", "single_word": false, "lstrip": false, "rstrip": false, "normalized": false, "special": true}, {"id": 6, "content": "<|python_end|>", "single_word": false, "lstrip": false, "rstrip": false, "normalized": false, "special": true}, {"id": 7, "content": "<|output_start|>", "single_word": false, "lstrip": false, "rstrip": false, "normalized": false, "special": true}, {"id": 8, "content": "<|output_end|>", "single_word": false, "lstrip": false, "rstrip": false, "normalized": false, "special": true}], "normalizer": null, "pre_tokenizer": {"type": "Sequence", "pretokenizers": [{"type": "Split", "pattern": {"Regex": "'(?i:[sdmt]|ll|ve|re)|[^\\r\\n\\p{L}\\p{N}]?+\\p{L}+|\\p{N}{1,2}| ?[^\\s\\p{L}\\p{N}]++[\\r\\n]*|\\s*[\\r\\n]|\\s+(?!\\S)|\\s+"}, "behavior": "Isolated", "invert": false}, {"type": "ByteLevel", "add_prefix_space": false, "trim_offsets": true, "use_regex": false}]}, "post_processor": null, "decoder": {"type": "ByteLevel", "add_prefix_space": true, "trim_offsets": true, "use_regex": true}, "model": {"type": "BPE", "dropout": null, "unk_token": null, "continuing_subword_prefix": null, "end_of_word_suffix": null, "fuse_unk": false, "byte_fallback": true, "ignore_merges": false, "vocab": {"<|bos|>": 0, "<|user_start|>": 1, "<|user_end|>": 2, "<|assistant_start|>": 3, "<|assistant_end|>": 4, "<|python_start|>": 5, "<|python_end|>": 6, "<|output_start|>": 7, "<|output_end|>": 8, "!": 9, "\"": 10, "#": 11, "$": 12, "%": 13, "&": 14, "'": 15, "(": 16, ")": 17, "*": 18, "+": 19, ",": 20, "-": 21, ".": 22, "/": 23, "0": 24, "1": 25, "2": 26, "3": 27, "4": 28, "5": 29, "6": 30, "7": 31, "8": 32, "9": 33, ":": 34, ";": 35, "<": 36, "=": 37, ">": 38, "?": 39, "@": 40, "A": 41, "B": 42, "C": 43, "D": 44, "E": 45, "F": 46, "G": 47, "H": 48, "I": 49, "J": 50, "K": 51, "L": 52, "M": 53, "N": 54, "O": 55, "P": 56, "Q": 57, "R": 58, "S": 59, "T": 60, "U": 61, "V": 62, "W": 63, "X": 64, "Y": 65, "Z": 66, "[": 67, "\\": 68, "]": 69, "^": 70, "_": 71, "`": 72, "a": 73, "b": 74, "c": 75, "d": 76, "e": 77, "f": 78, "g": 79, "h": 80, "i": 81, "j": 82, "k": 83, "l": 84, "m": 85, "n": 86, "o": 87, "p": 88, "q": 89, "r": 90, "s": 91, "t": 92, "u": 93, "v": 94, "w": 95, "x": 96, "y": 97, "z": 98, "{": 99, "|": 100, "}": 101, "~": 102, "\u00a1": 103, "\u00a2": 104, "\u00a3": 105, "\u00a4": 106, "\u00a5": 107, "\u00a6": 108, "\u00a7": 109, "\u00a8": 110, "\u00a9": 111, "\u00aa": 112, "\u00ab": 113, "\u00ac": 114, "\u00ae": 115, "\u00af": 116, "\u00b0": 117, "\u00b1": 118, "\u00b2": 119, "\u00b3": 120, "\u00b4": 121, "\u00b5": 122, "\u00b6": 123, "\u00b7": 124, "\u00b8": 125, "\u00b9": 126, "\u00ba": 127, "\u00bb": 128, "\u00bc": 129, "\u00bd": 130, "\u00be": 131, "\u00bf": 132, "\u00c0": 133, "\u00c1": 134, "\u00c2": 135, "\u00c3": 136, "\u00c4": 137, "\u00c5": 138, "\u00c6": 139, "\u00c7": 140, "\u00c8": 141, "\u00c9": 142, "\u00ca": 143, "\u00cb": 144, "\u00cc": 145, "\u00cd": 146, "\u00ce": 147, "\u00cf": 148, "\u00d0": 149, "\u00d1": 150, "\u00d2": 151, "\u00d3": 152, "\u00d4": 153, "\u00d5": 154, "\u00d6": 155, "\u00d7": 156, "\u00d8": 157, "\u00d9": 158, "\u00da": 159, "\u00db": 160, "\u00dc": 161, "\u00dd": 162, "\u00de": 163, "\u00df": 164, "\u00e0": 165, "\u00e1": 166, "\u00e2": 167, "\u00e3": 168, "\u00e4": 169, "\u00e5": 170, "\u00e6": 171, "\u00e7": 172, "\u00e8": 173, "\u00e9": 174, "\u00ea": 175, "\u00eb": 176, "\u00ec": 177, "\u00ed": 178, "\u00ee": 179, "\u00ef": 180, "\u00f0": 181, "\u00f1": 182, "\u00f2": 183, "\u00f3": 184, "\u00f4": 185, "\u00f5": 186, "\u00f6": 187, "\u00f7": 188, "\u00f8": 189, "\u00f9": 190, "\u00fa": 191, "\u00fb": 192, "\u00fc": 193, "\u00fd": 194, "\u00fe": 195, "\u00ff": 196, "\u0100": 197, "\u0101": 198, "\u0102": 199, "\u0103": 200, "\u0104": 201, "\u0105": 202, "\u0106": 203, "\u0107": 204, "\u0108": 205, "\u0109": 206, "\u010a": 207, "\u010b": 208, "\u010c": 209, "\u010d": 210, "\u010e": 211, "\u010f": 212, "\u0110": 213, "\u0111": 214, "\u0112": 215, "\u0113": 216, "\u0114": 217, "\u0115": 218, "\u0116": 219, "\u0117": 220, "\u0118": 221, "\u0119": 222, "\u011a": 223, "\u011b": 224, "\u011c": 225, "\u011d": 226, "\u011e": 227, "\u011f": 228, "\u0120": 229, "\u0121": 230, "\u0122": 231, "\u0123": 232, "\u0124": 233, "\u0125": 234, "\u0126": 235, "\u0127": 236, "\u0128": 237, "\u0129": 238, "\u012a": 239, "\u012b": 240, "\u012c": 241, "\u012d": 242, "\u012e": 243, "\u012f": 244, "\u0130": 245, "\u0131": 246, "\u0132": 247, "\u0133": 248, "\u0134": 249, "\u0135": 250, "\u0136": 251, "\u0137": 252, "\u0138": 253, "\u0139": 254, "\u013a": 255, "\u013b": 256, "\u013c": 257, "\u013d": 258, "\u013e": 259, "\u013f": 260, "\u0140": 261, "\u0141": 262, "\u0142": 263, "\u0143": 264, "\u0120t": 265, "\u0120a": 266, "he": 267, "in": 268, "re": 269, "\u0120the": 270, "on": 271, "er": 272, "\u0120s": 273, "at": 274, "\u0120o": 275, "\u0120c": 276, "en": 277, "es": 278, "\u0120w": 279, "is": 280, "nd": 281, "it": 282, "or": 283, "\u0120p": 284, "al": 285, "\u0120b": 286, "\u0120f": 287, "an": 288, "ed": 289, "\u0120of": 290, "ing": 291, "\u0120in": 292, "ou": 293, "ar": 294, "\u0120m": 295, "\u0120to": 296, "\u0120and": 297, "ic": 298, "\u0120d": 299, "ion": 300, "le": 301, "ro": 302, "as": 303, "\u0120h": 304, "\u0120th": 305, "ent": 306, "ct": 307, "\u0120e": 308, "il": 309, "\u0120re": 310, "ve": 311, "om": 312, "\u0120l": 313, "st": 314, "\u0120n": 315, ".\u010a": 316, "\u00e2\u0122": 317, "\u0120is": 318, "ly": 319, "\u0120be": 320, "se": 321, "\u0120g": 322, "\u0120T": 323, "ol": 324, "ation": 325, "im": 326, "id": 327, "et": 328, "ut": 329, "ur": 330, "ow": 331, "ce": 332, "ot": 333, "ch": 334, "ra": 335, "\u0120for": 336, "ig": 337, "\u0120u": 338, "\u0120y": 339, "\u0120on": 340, "\u0120that": 341, "\u0120st": 342, "\u0120A": 343, "ver": 344, "\u0120S": 345, "ir": 346, "\u0120I": 347, "ay": 348, "ul": 349, "\u0120C": 350, "am": 351, "\u0120as": 352, "ith": 353, "\u0120are": 354, "el": 355, "\u0120pro": 356, "\u0120you": 357, "ad": 358, "her": 359, "\u0120an": 360, "\u0120con": 361, "\u0120with": 362, "if": 363, "\u0120or": 364, "\u0120it": 365, "\u0120wh": 366, "\u0120al": 367, "od": 368, "ter": 369, "\u0120The": 370, "ge": 371, "ment": 372, "th": 373, "\u0120M": 374, "op": 375, "ate": 376, "ers": 377, "ess": 378, "ill": 379, "\u0120de": 380, "\u00e2\u0122\u013b": 381, "ist": 382, "\u0120he": 383, "\u0120(": 384, "ies": 385, "\u0120P": 386, "ab": 387, "\u0120ex": 388, "ore": 389, "\u0120su": 390, "ect": 391, "\u0120com": 392, "\u0120we": 393, "us": 394, "\u0120ha": 395, "ity": 396, "\u0120B": 397, "est": 398, "ive": 399, "ke": 400, "ac": 401, "res": 402, "um": 403, "rom": 404, "\u0120v": 405, "ld": 406, "ant": 407, "os": 408, "\u0120can": 409, "qu": 410, "em": 411, "\u0120by": 412, "nt": 413, "iv": 414, "ain": 415, "\u0120H": 416, "\u0120at": 417, "igh": 418, "\u0120W": 419, "pp": 420, "ud": 421, "\u0120ch": 422, "\u0120from": 423, "\u0120ne": 424, "\u0120r": 425, "ort": 426, "oc": 427, "and": 428, "\u0120D": 429, "\u0120was": 430, "\u0120E": 431, "\u0120se": 432, "ial": 433, "\u0120\u00e2\u0122": 434, "ure": 435, "\u0120le": 436, "\u0120F": 437, "un": 438, "\u0120R": 439, "art": 440, "\u0120have": 441, "ical": 442, "\u0120not": 443, "\u0120en": 444, "\u0120sh": 445, "og": 446, "\u0120sp": 447, "\u0120N": 448, "ri": 449, "\u0120G": 450, "\u0120this": 451, "\u00e2\u0122\u013bs": 452, "\u0120wor": 453, "\u0120ab": 454, "\u0120L": 455, "ight": 456, "rou": 457, "The": 458, "all": 459, "pt": 460, "ost": 461, "ome": 462, "red": 463, "du": 464, "out": 465, "ich": 466, "ions": 467, "gh": 468, "our": 469, "\u0120im": 470, "\u0120us": 471, "ould": 472, "\u0120pl": 473, "per": 474, "ine": 475, "ther": 476, "\u0120your": 477, "ated": 478, "ide": 479, "ag": 480, "\u0120their": 481, "act": 482, "ell": 483, "ard": 484, "ff": 485, "ear": 486, "\u0120int": 487, "pl": 488, "ast": 489, "age": 490, "ak": 491, "\u0120k": 492, "\u0120whe": 493, "ans": 494, "\u0120they": 495, "ood": 496, "ust": 497, "\u0120O": 498, "\u0120will": 499, "\u0120which": 500, "ec": 501, "ous": 502, "iz": 503, "\u0120ad": 504, "20": 505, "\u0120inc": 506, "\u0120more": 507, "ult": 508, "\u0120all": 509, "\u0120U": 510, "\u0120cont": 511, "\u0120dis": 512, "\u00e2\u0122\u013f": 513, "cc": 514, "end": 515, "\u0120comp": 516, "ib": 517, "ru": 518, "vel": 519, "\u0120has": 520, "ong": 521, "ap": 522, "\u0120In": 523, "\u0120res": 524, "ip": 525, "so": 526, "\u0120do": 527, "ater": 528, "ild": 529, "orm": 530, "ations": 531, "ia": 532, "ere": 533, "are": 534, "ew": 535, "\u0120J": 536, "able": 537, "\u0120Th": 538, "ks": 539, "\u0120cl": 540, "\u0120man": 541, "ary": 542, "\u0120other": 543, "ally": 544, "\u0120te": 545, "ence": 546, "ry": 547, "ents": 548, "\u0120but": 549, "ind": 550, "\u0120imp": 551, "\u0120also": 552, "ep": 553, "ach": 554, "ake": 555, "\u0120\u00e2\u0122\u013e": 556, "\u0120per": 557, "19": 558, "\u0120one": 559, "reat": 560, "\u0120me": 561, "ance": 562, "ose": 563, "ign": 564, "ase": 565, "\u0120were": 566, "ass": 567, "\u0120j": 568, "au": 569, "\u0120so": 570, "\u0120out": 571, "\u0120stud": 572, "ress": 573, "av": 574, "\u0120about": 575, "'s": 576, "very": 577, "one": 578, "ition": 579, "ction": 580, "\u0120tim": 581, "ice": 582, "\u0120un": 583, "\u0120app": 584, "ace": 585, "\u0120part": 586, "ok": 587, "\u0120pe": 588, "\u0120ar": 589, "ount": 590, "\u0120ev": 591, "\u0120inf": 592, "ber": 593, "ens": 594, "ord": 595, "ory": 596, "ack": 597, "\u0120sy": 598, "\u0120sc": 599, "ike": 600, "ire": 601, "ame": 602, "\u0120who": 603, "ish": 604, "ors": 605, "ite": 606, "\u0120comm": 607, "\u0120them": 608, "ue": 609, "\u0120St": 610, "ang": 611, "now": 612, "ound": 613, "ces": 614, "low": 615, "ub": 616, "\u0120It": 617, "ree": 618, "\u0120pre": 619, "\u0120bec": 620, "\u0120up": 621, "ople": 622, "ric": 623, "olog": 624, "\u0120may": 625, "\u0120than": 626, "ays": 627, "\u0120qu": 628, "iff": 629, "ile": 630, "\u0120year": 631, "\u0120some": 632, "\u0120his": 633, "\u0120rec": 634, "\u0120when": 635, "ie": 636, "ail": 637, "\u0120K": 638, "ings": 639, "ates": 640, "nder": 641, "\u0120how": 642, "\u0120work": 643, "ren": 644, "\u0120into": 645, "\u0120people": 646, "\u0120been": 647, "\u0120time": 648, "\u0120there": 649, "mer": 650, "\u0120tra": 651, "\u0120its": 652, "\u0120go": 653, "\u0120over": 654, "\u0120This": 655, "ough": 656, "rit": 657, "\u0120diff": 658, "\u0120these": 659, "\u0120use": 660, "\u0120ro": 661, "rough": 662, "lud": 663, "\u0120col": 664, "alth": 665, "ause": 666, "\u0120our": 667, "\u0120Ch": 668, "ph": 669, "\u0120ag": 670, "vers": 671, "ual": 672, "\u0120like": 673, "erv": 674, "te": 675, "ian": 676, "ms": 677, "\u0120most": 678, "ons": 679, "\u0120sa": 680, "\u0120ra": 681, "\u0120bl": 682, "\u0120cons": 683, "\u0120know": 684, "\u0120act": 685, "\u0120hel": 686, "\u0120\"": 687, "ook": 688, "\u0120bet": 689, "ove": 690, "ific": 691, "ll": 692, "row": 693, "\u0120need": 694, "ning": 695, "irst": 696, "ond": 697, "int": 698, "\u0120tr": 699, "ities": 700, "tern": 701, "we": 702, "ys": 703, "velop": 704, "\u0120under": 705, "\u0120new": 706, "les": 707, "\u0120child": 708, "lect": 709, "ject": 710, "\u0120acc": 711, "stem": 712, "\u0120V": 713, "ments": 714, "\u0120help": 715, "\u0120des": 716, "ffect": 717, "lic": 718, "ious": 719, "\u0120if": 720, "\u0120Y": 721, "\u0120includ": 722, "\u0120such": 723, "\u0120tw": 724, "ient": 725, "\u0120would": 726, "\u0120had": 727, "\u0120what": 728, "cess": 729, "ple": 730, "ool": 731, "\u0120rel": 732, "\u0120used": 733, "ob": 734, "\u0120any": 735, "yp": 736, "\u0120produ": 737, "\u0120rep": 738, "ating": 739, "\u0120ph": 740, "\u0120gen": 741, "\u0120many": 742, "ular": 743, "\u0120develop": 744, "ational": 745, "10": 746, "ative": 747, "\u0120fe": 748, "hed": 749, "\u0120through": 750, "\u0120prov": 751, "round": 752, "ced": 753, "\u0120pr": 754, "\u0120first": 755, "\u0120only": 756, "\u0120di": 757, "\u0120spec": 758, "ov": 759, "\u0120off": 760, "\u0120am": 761, "\u0120ind": 762, "\u0120ac": 763, "ise": 764, "ics": 765, "ark": 766, "uring": 767, "\u0120system": 768, "oss": 769, "eth": 770, "\u0120differe": 771, "uc": 772, "ful": 773, "\u0120no": 774, "fter": 775, "ink": 776, "\u0120em": 777, "ath": 778, "\u0120po": 779, "\u0120Un": 780, "hen": 781, "\u0120\u00e2\u0122\u0135": 782, "ts": 783, "\u0120reg": 784, "\u0120two": 785, "oth": 786, "\u0120exp": 787, "als": 788, "\u0120add": 789, "ten": 790, "\u0120water": 791, "\u0120health": 792, "ne": 793, "\u0120dec": 794, "ble": 795, "iss": 796, "ange": 797, "erm": 798, "ility": 799, "\u0120sur": 800, "?\u010a": 801, "rop": 802, "ible": 803, "ased": 804, "old": 805, "rib": 806, "\u0120fl": 807, "\u0120well": 808, "arch": 809, "\u0120ob": 810, "ures": 811, "In": 812, "ife": 813, ").": 814, "\u0120should": 815, "ower": 816, "\u0120ass": 817, "),": 818, "18": 819, "\u0120att": 820, "\u0120years": 821, "ram": 822, "ract": 823, "own": 824, "\u0120-": 825, "\u0120sm": 826, "fore": 827, "ng": 828, "\u0120rese": 829, "\u0120supp": 830, "\u0120rem": 831, "\u0120get": 832, "\u0120co": 833, "ert": 834, "ween": 835, "\u0120inv": 836, "\u0120high": 837, "\u0120make": 838, ":\u010a": 839, "wn": 840, "gan": 841, "ick": 842, "its": 843, "hes": 844, "\u0120He": 845, "\u0120could": 846, "chool": 847, "\u0120bu": 848, "chn": 849, "\u0120where": 850, "ade": 851, "\u0120import": 852, "\u00e2\u0122\u013bt": 853, "\u0120sub": 854, "\u0120between": 855, "cy": 856, "00": 857, "ily": 858, "ants": 859, "\u0120pres": 860, "\u0120lear": 861, "ting": 862, "sel": 863, "ever": 864, "ied": 865, "uch": 866, "ience": 867, "ution": 868, "xt": 869, "\u0120pers": 870, "hat": 871, "\u0120ear": 872, "ology": 873, "\u0120trans": 874, "ural": 875, "\u0120exam": 876, "\u0120form": 877, "\u0120num": 878, "form": 879, "ss": 880, "\u0120different": 881, "ident": 882, "\u0120inst": 883, "\u0120her": 884, "ually": 885, "ines": 886, "meric": 887, "\u0120car": 888, "\u0120mod": 889, "ata": 890, "ists": 891, "\u0120world": 892, "\u0120found": 893, "\u0120exper": 894, "ins": 895, "\u0120disc": 896, "iet": 897, "ef": 898, "\u0120med": 899, "\u0120typ": 900, "aw": 901, "\u0120long": 902, "gy": 903, "\u0120inter": 904, "\u0120pol": 905, "land": 906, "ited": 907, "\u0120sim": 908, "\u0120because": 909, "ness": 910, "\u0120way": 911, "\u0120just": 912, "\u0120effect": 913, "\u0120even": 914, "\u0120lar": 915, "\u0120inform": 916, "\u0120very": 917, "aking": 918, "ron": 919, "\u0120incre": 920, "\u0120ke": 921, "ict": 922, "get": 923, "\u0120cent": 924, "\u0120count": 925, "\u0120after": 926, "ft": 927, "\u0120then": 928, "ck": 929, "ature": 930, "\u0120det": 931, "\u0120ed": 932, "\u0120hum": 933, "\u0120said": 934, "vent": 935, "\u0120children": 936, "\u0120see": 937, "ically": 938, "urn": 939, "\u0120sign": 940, "\u0120var": 941, "\u0120every": 942, "other": 943, "oy": 944, "ives": 945, "\u0120Americ": 946, "\u0120process": 947, "\u0120prog": 948, "cept": 949, "\u0120resp": 950, "cer": 951, "\u0120techn": 952, "\u0120call": 953, "\u0120gener": 954, "\u0120pat": 955, "\u0120ca": 956, "ivers": 957, "\u0120important": 958, "iron": 959, "ody": 960, "\u0120those": 961, "ases": 962, "arm": 963, "Th": 964, "ollow": 965, "\u0120gra": 966, "\u0120ref": 967, "\u0120students": 968, "\u0120food": 969, "\u0120each": 970, "\u0120ext": 971, "\u0120result": 972, "ds": 973, "ism": 974, "\u0120pub": 975, "\u0120sk": 976, ".\u00e2\u0122\u013f": 977, "\u0120soc": 978, "\u0120loc": 979, "ues": 980, "\u0120fact": 981, "\u0120being": 982, "ages": 983, "\u0120life": 984, "iew": 985, "\u0120cre": 986, "ruct": 987, "\u0120requ": 988, "\u0120much": 989, "\u0120read": 990, "\u0120sec": 991, "\u0120commun": 992, "led": 993, "\u0120mon": 994, "con": 995, "\u0120set": 996, "ps": 997, "\u0120fam": 998, "\u0120partic": 999, "omm": 1000, "\u0120information": 1001, "cent": 1002, "\u0120grow": 1003, "\u0120art": 1004, "tle": 1005, "\u0120study": 1006, "\u0120lead": 1007, "\u0120during": 1008, "\u0120level": 1009, "\u0120she": 1010, "ork": 1011, "\u0120They": 1012, "\u0120dep": 1013, "\u0120proble": 1014, "\u0120We": 1015, "ices": 1016, "\u0120find": 1017, "\u0120data": 1018, "\u0120dist": 1019, "\u0120does": 1020, "ather": 1021, "\u0120def": 1022, "\u0120school": 1023, "\u0120Al": 1024, "\u0120ent": 1025, "ize": 1026, "\u0120own": 1027, "\u0120cur": 1028, "\u0120che": 1029, "gg": 1030, "\u0120person": 1031, "\u0120follow": 1032, "ized": 1033, "\u0120If": 1034, ")\u010a": 1035, "\u0120good": 1036, "\u0120av": 1037, "any": 1038, "ward": 1039, "\u0120back": 1040, "\u0120Pro": 1041, "\u0120right": 1042, "\u0120aut": 1043, "viron": 1044, "\u0120using": 1045, "\u0120As": 1046, "12": 1047, "\u0120same": 1048, "\u0120ins": 1049, "\u0120made": 1050, "\u0120min": 1051, "stand": 1052, "ection": 1053, "\u0120my": 1054, "\u0120gl": 1055, "\u0120expl": 1056, "\u0120dise": 1057, "vern": 1058, "read": 1059, "\u0120test": 1060, "\u0120end": 1061, "\u0120show": 1062, "\u0120str": 1063, "\u0120hist": 1064, "io": 1065, "ved": 1066, "\u0120small": 1067, "\u0120often": 1068, "\u0120bo": 1069, "\u0120treat": 1070, "\u0120pop": 1071, "\u0120sol": 1072, "ergy": 1073, "\u0120both": 1074, "eg": 1075, "hip": 1076, "\u0120comple": 1077, "ted": 1078, "ality": 1079, "ale": 1080, "\u0120research": 1081, "\u0120less": 1082, "\u0120before": 1083, "ially": 1084, "\u0120main": 1085, "\u0120How": 1086, "\u0120grou": 1087, "\u0120take": 1088, "und": 1089, "\u0120ris": 1090, "\u0120body": 1091, "akes": 1092, "\u0120day": 1093, "\u0120prot": 1094, "ock": 1095, "orn": 1096, "15": 1097, "ivid": 1098, "\u0120For": 1099, "imate": 1100, "iel": 1101, "omen": 1102, "\u0120around": 1103, "\u0120while": 1104, "vironment": 1105, "ince": 1106, "hers": 1107, "\u0120An": 1108, "ien": 1109, "ars": 1110, "the": 1111, "ined": 1112, "\u0120val": 1113, "\u0120lit": 1114, "\u0120br": 1115, "\u0120vis": 1116, "nce": 1117, "\u0120fun": 1118, "ix": 1119, "\u0120design": 1120, "rol": 1121, "\u0120number": 1122, "\u0120now": 1123, "\u0120start": 1124, "ex": 1125, "ty": 1126, "der": 1127, "ute": 1128, "\u0120poss": 1129, "inal": 1130, "\u0120occ": 1131, "\u0120look": 1132, "\u0120common": 1133, "\u0120down": 1134, "\u0120cell": 1135, "\u0120state": 1136, "\u0120provid": 1137, "ished": 1138, "\u0120redu": 1139, "\u0120power": 1140, "iqu": 1141, "\u0120activ": 1142, "\u0120class": 1143, "\u0120organ": 1144, "dition": 1145, "\u0120Ind": 1146, "\u0120ma": 1147, "This": 1148, "\u0120serv": 1149, "\u0120hand": 1150, "\u0120Con": 1151, "iving": 1152, "iety": 1153, "\u0120again": 1154, "ral": 1155, "day": 1156, "\u0120Ar": 1157, "ier": 1158, "\u0120mem": 1159, "\u0120Sp": 1160, "..": 1161, "irect": 1162, "ury": 1163, "\u0120elect": 1164, "ves": 1165, "up": 1166, "ulation": 1167, ",\u00e2\u0122\u013f": 1168, "\u0120support": 1169, "\u0120human": 1170, "\u0120plan": 1171, "\u0120three": 1172, "\u0120char": 1173, "air": 1174, "ital": 1175, "\u0120cle": 1176, "iversity": 1177, "\u0120You": 1178, "\u0120Sc": 1179, "ium": 1180, "rain": 1181, "\u0120care": 1182, "\u0120bel": 1183, "oh": 1184, "rent": 1185, "ains": 1186, "ger": 1187, "ters": 1188, "ving": 1189, "\u0120example": 1190, "\u0120writ": 1191, "\u0120understand": 1192, "ered": 1193, "ven": 1194, "17": 1195, "\u0120point": 1196, "\u0120ser": 1197, "-b": 1198, "acter": 1199, "\u0120New": 1200, "\u0120build": 1201, "ave": 1202, "ead": 1203, "||": 1204, "\u0120including": 1205, "\u0120must": 1206, "\u0120conf": 1207, "\u0120large": 1208, "\u0120great": 1209, "\u0120allow": 1210, "\u0120dr": 1211, "11": 1212, "ids": 1213, "\u0120land": 1214, "ross": 1215, "\u0120But": 1216, "\u0120report": 1217, "oms": 1218, "cl": 1219, "\u0120educ": 1220, "uss": 1221, "\u00e2\u0122\u013e": 1222, "\u0120known": 1223, "\u0120est": 1224, "\u0120eas": 1225, "ional": 1226, "aterial": 1227, "\u0120called": 1228, "\u00e2\u0122\u0136": 1229, "itions": 1230, "ull": 1231, "\u0120contin": 1232, "\u0120adv": 1233, "\u0120cor": 1234, "gen": 1235, "\u0120op": 1236, "\u0120som": 1237, "ouse": 1238, "16": 1239, "\u0120met": 1240, "-s": 1241, "\u0120equ": 1242, "\u0120learn": 1243, "\u0120govern": 1244, "way": 1245, "\u0120beh": 1246, "\u0120energy": 1247, "anc": 1248, "reen": 1249, "ets": 1250, "\u0120caus": 1251, "\u0120There": 1252, "outh": 1253, "iver": 1254, "\u0120pract": 1255, "ared": 1256, "esp": 1257, "\u0120did": 1258, "ash": 1259, "\u0120cour": 1260, "\u0120still": 1261, "\u0120environment": 1262, "ential": 1263, "\u0120though": 1264, "\u0120think": 1265, "self": 1266, ").\u010a": 1267, "\u0120quest": 1268, "ries": 1269, "\u0120const": 1270, "com": 1271, "\u0120\u00e2\u0122\u013a": 1272, "\u0120few": 1273, "ering": 1274, "\u0120ide": 1275, "\u0120gu": 1276, "ividual": 1277, "ected": 1278, "els": 1279, "ee": 1280, "ah": 1281, "ired": 1282, "\u0120sym": 1283, "\u0120him": 1284, "ources": 1285, "\u0120want": 1286, "\u0120might": 1287, "\u0120product": 1288, "\u0120place": 1289, "\u0120disease": 1290, "iod": 1291, "\u0120public": 1292, "\u0120These": 1293, "\u0120change": 1294, "30": 1295, "\u0120chang": 1296, "itive": 1297, "\u0120ret": 1298, "\u0120project": 1299, "\u0120don": 1300, "iven": 1301, "\u0120light": 1302, "ording": 1303, "\u0120tem": 1304, "\u0120material": 1305, "agn": 1306, "ax": 1307, "\u0120impro": 1308, "\u0120play": 1309, "\u0120phys": 1310, "\u0120appro": 1311, "\u0120mat": 1312, "raph": 1313, "\u0120And": 1314, "erest": 1315, "osed": 1316, "\u0120stand": 1317, "\u0120Wh": 1318, "eng": 1319, "angu": 1320, "conom": 1321, "oci": 1322, "line": 1323, "\u0120air": 1324, "lish": 1325, "\u0120ben": 1326, "illion": 1327, "\u0120bre": 1328, "\u0120iss": 1329, "\u0120prof": 1330, "ption": 1331, "\u0120pot": 1332, "\u0120blood": 1333, "\u0120ve": 1334, "\u0120development": 1335, "alk": 1336, "inc": 1337, "\u0120eng": 1338, "ination": 1339, "\u0120pur": 1340, "14": 1341, "\u0120individual": 1342, "de": 1343, "arent": 1344, "\u0120within": 1345, "\u0120home": 1346, "bers": 1347, "\u0120present": 1348, "iness": 1349, "It": 1350, "\u0120pain": 1351, "\u0120risk": 1352, "\u0120Eng": 1353, "ffic": 1354, "\u0120include": 1355, "50": 1356, "\u0120meth": 1357, "bs": 1358, "me": 1359, "13": 1360, "\u0120without": 1361, "\u0120area": 1362, "ization": 1363, "\u0120best": 1364, "ank": 1365, "\u0120imm": 1366, "ason": 1367, "\u0120ident": 1368, "ertain": 1369, "ration": 1370, "\u0120dem": 1371, "\u0120mus": 1372, "ior": 1373, "ense": 1374, "ental": 1375, "oun": 1376, "\u0120sit": 1377, "ime": 1378, "\u0120women": 1379, "\u0120direct": 1380, "\u0120sl": 1381, "\u0120cap": 1382, "less": 1383, "erc": 1384, "arc": 1385, "\u0120social": 1386, "\u0120ess": 1387, "\u0120Is": 1388, "\u0120University": 1389, "\u0120meas": 1390, "ills": 1391, "rodu": 1392, "jor": 1393, "\u0120better": 1394, "\u0120nat": 1395, "\u0120bas": 1396, "\u0120another": 1397, "\u0120become": 1398, "\u0120pass": 1399, "\u0120keep": 1400, "ify": 1401, "\u0120pos": 1402, "'t": 1403, "ability": 1404, "ner": 1405, ".\"": 1406, "\u0120anim": 1407, "\u0120American": 1408, "\u0120cause": 1409, "\u0120program": 1410, "\u0120ant": 1411, "ield": 1412, "\u0120mark": 1413, "to": 1414, ".\u00e2\u0122\u013f\u010a": 1415, "ived": 1416, "ats": 1417, "\u0120low": 1418, "ource": 1419, "\u0120early": 1420, "ware": 1421, "\u0120anal": 1422, "\u0120old": 1423, "orth": 1424, "ining": 1425, "\u0120belie": 1426, "\u0120top": 1427, "\u0120interest": 1428, "\u0120cult": 1429, "ently": 1430, ".,": 1431, "\u0120proper": 1432, "\u0120sever": 1433, "\u0120learning": 1434, "ton": 1435, "ways": 1436, "\u0120control": 1437, "ified": 1438, "-f": 1439, "gin": 1440, "\u0120tre": 1441, "\u0120move": 1442, "\u0120history": 1443, "ris": 1444, "eral": 1445, "ological": 1446, "\u0120provide": 1447, "\u0120rest": 1448, "\u0120econom": 1449, "ccess": 1450, "What": 1451, "\u0120saf": 1452, "\u0120\u00e2\u0122\u0136": 1453, "\u0120too": 1454, "\u0120last": 1455, "\u0120method": 1456, "here": 1457, "\u0120opp": 1458, "\u0120means": 1459, "\u0120However": 1460, "\u0120percent": 1461, "\u0120desc": 1462, "lished": 1463, "ients": 1464, "ories": 1465, "\u0120occur": 1466, "man": 1467, "eed": 1468, "ians": 1469, "atic": 1470, "rap": 1471, "\u0120avail": 1472, "\u0120Ad": 1473, "\u0120dev": 1474, "\u0120plant": 1475, "\u0120family": 1476, "\u0120here": 1477, "\u0120real": 1478, "\u0120current": 1479, "\u0120scient": 1480, "ern": 1481, "\u0120leg": 1482, "\u0120second": 1483, "\u0120langu": 1484, "\u0120major": 1485, "\u0120mil": 1486, "\u0120able": 1487, "\u0120benef": 1488, "\u0120affect": 1489, "\u0120fore": 1490, "\u0120De": 1491, "ards": 1492, "\u0120ele": 1493, "hor": 1494, "ained": 1495, "ider": 1496, "\u0120When": 1497, "\u0120perform": 1498, "\u0120says": 1499, "\u0120group": 1500, "\u0120feel": 1501, "\u0120indu": 1502, "\u0120infl": 1503, "\u0120oper": 1504, "\u0120&": 1505, "\u0120happ": 1506, "ug": 1507, "\u0120species": 1508, "\u0120war": 1509, "use": 1510, "ples": 1511, "oid": 1512, "\u0120order": 1513, "\u0120bus": 1514, "\u0120possible": 1515, "\u0120par": 1516, "az": 1517, "\u0120near": 1518, "\u0120cal": 1519, "\u0120several": 1520, "ision": 1521, "\u0120invol": 1522, "\u0120particular": 1523, "\u0120Re": 1524, "\u0120addition": 1525, "\u0120mean": 1526, "\u0120government": 1527, "ograph": 1528, "ik": 1529, "\u0120hig": 1530, "\u0120fin": 1531, "icle": 1532, "\u0120period": 1533, "\u0120Sh": 1534, "ention": 1535, "\u0120At": 1536, "\u0120areas": 1537, "\u0120say": 1538, "\u0120Ph": 1539, "\u0120cost": 1540, "ission": 1541, "\u0120things": 1542, "\u0120Ex": 1543, "cle": 1544, "\u0120ter": 1545, "\u0120prevent": 1546, "ots": 1547, "\u0120United": 1548, "\u0120unt": 1549, "view": 1550, "ocus": 1551, "\u0120Res": 1552, "\u0120against": 1553, "amp": 1554, "aper": 1555, "\u0120treatment": 1556, "\u0120wee": 1557, "ote": 1558, "\u0120open": 1559, "\u0120law": 1560, "ator": 1561, "ogn": 1562, "par": 1563, "pect": 1564, "\u0120prom": 1565, "\u0120Cl": 1566, "\u0120since": 1567, "We": 1568, "\u0120signific": 1569, "\u0120To": 1570, "\u0120times": 1571, "\u0120available": 1572, "|\u010a": 1573, "osp": 1574, "\u0120others": 1575, "\u0120lim": 1576, "sc": 1577, "ends": 1578, "ina": 1579, "\u0120age": 1580, "\u0120Pl": 1581, ".S": 1582, "\u0120el": 1583, "\u0120country": 1584, "\u0120orig": 1585, "\u0120Col": 1586, "\u0120head": 1587, "\u0120mar": 1588, "\u0120access": 1589, "If": 1590, "\u0120problem": 1591, "cing": 1592, "\u0120non": 1593, "rist": 1594, "\u0120creat": 1595, "ling": 1596, "\u0120based": 1597, "\u0120problems": 1598, "-p": 1599, "\u0120name": 1600, "\u0120month": 1601, "urop": 1602, "\u0120type": 1603, "-c": 1604, "\u0120Can": 1605, "\u0120list": 1606, "ilar": 1607, "ret": 1608, "\u0120impact": 1609, "\u0120run": 1610, "idence": 1611, "\u0120following": 1612, "\u0120cond": 1613, "\u0120fac": 1614, "\u0120four": 1615, "\u0120free": 1616, "ole": 1617, "\u0120hard": 1618, "\u0120natural": 1619, "\u0120press": 1620, "though": 1621, "imes": 1622, "\u0120levels": 1623, ",\"": 1624, "\u0120lo": 1625, "\u0120conn": 1626, "ames": 1627, "\u0120men": 1628, "\u0120bir": 1629, "ended": 1630, "\u0120amount": 1631, "\u0120come": 1632, "ones": 1633, "ane": 1634, "\u0120among": 1635, "\u0120struct": 1636, "\u0120flow": 1637, "\u0120book": 1638, "\u0120del": 1639, "ances": 1640, "work": 1641, "port": 1642, "\u0120put": 1643, "\u0120certain": 1644, "\u0120fre": 1645, "omp": 1646, "\u0120young": 1647, "\u0120comput": 1648, "\u0120focus": 1649, "\u0120cells": 1650, "ring": 1651, "\u0120post": 1652, "\u0120making": 1653, "\u0120bi": 1654, "\u0120States": 1655, "oint": 1656, "ortun": 1657, "ething": 1658, "\u0120object": 1659, "icult": 1660, "ably": 1661, "\u0120lab": 1662, "-d": 1663, "\u0120indust": 1664, "\u0120et": 1665, "elf": 1666, "sy": 1667, "\u0120intern": 1668, "\u0120let": 1669, "\u0120little": 1670, "\u0120heart": 1671, "ploy": 1672, "urther": 1673, "\u0120local": 1674, "ope": 1675, "hy": 1676, "\u0120cho": 1677, "\u0120technology": 1678, "\u0120gr": 1679, "\u0120Se": 1680, "\u0120success": 1681, "\u0120case": 1682, "\u0120What": 1683, "of": 1684, "\u0120sw": 1685, "urope": 1686, "oks": 1687, "\u0120rece": 1688, "une": 1689, "ised": 1690, "\u0120view": 1691, "\u0120Cent": 1692, "\u0120Q": 1693, "\u0120short": 1694, "\u0120mult": 1695, "\u0120due": 1696, "\u0120vir": 1697, "ptoms": 1698, "ression": 1699, "uture": 1700, "ox": 1701, "\u0120likely": 1702, "\u0120create": 1703, "ggest": 1704, "atory": 1705, "\u0120behav": 1706, "\u0120systems": 1707, "\u0120bro": 1708, "\u0120education": 1709, "\u0120teac": 1710, "\u0120far": 1711, "\u0120significant": 1712, "\u0120turn": 1713, "ication": 1714, "ately": 1715, "\u0120associ": 1716, "How": 1717, "\u0120usually": 1718, "\u0120National": 1719, "ides": 1720, "\u0120Te": 1721, "\u0120vol": 1722, "\u0120until": 1723, "\u0120cancer": 1724, "\u0120something": 1725, "\u0120hy": 1726, "\u0120Af": 1727, "\u0120consum": 1728, "\u0120brain": 1729, "\u0120Comm": 1730, "br": 1731, "\u0120researc": 1732, "\u0120language": 1733, "\u0120days": 1734, "\u0120cir": 1735, "\u0120rad": 1736, "As": 1737, "over": 1738, "\u0120En": 1739, "\u0120today": 1740, "\u0120along": 1741, "40": 1742, "\u0120temper": 1743, "\u0120function": 1744, "\u00e2\u0122\u0135": 1745, "\u0120ey": 1746, "\u0120invest": 1747, "\u0120Z": 1748, "\u0120increase": 1749, "ledge": 1750, "\u0120suggest": 1751, "ured": 1752, "\u0120determ": 1753, "olution": 1754, "\u0120million": 1755, "\u0120course": 1756, "\u0120parent": 1757, "\u0120space": 1758, "\u0120comb": 1759, "\u0120why": 1760, "\u0120fil": 1761, "\u00e2\u0122\u013bre": 1762, "__": 1763, "\u0120later": 1764, "There": 1765, "ape": 1766, "\u0120past": 1767, "25": 1768, "ending": 1769, "\u0120needs": 1770, "agement": 1771, "\u0120Europe": 1772, "por": 1773, "\u0120works": 1774, "\u0120God": 1775, "\u0120profess": 1776, "face": 1777, "aps": 1778, "\u0120community": 1779, "\u0120dam": 1780, "\u0120always": 1781, "resent": 1782, "ecially": 1783, "\u0120given": 1784, "\u0120dra": 1785, "\u0120effective": 1786, "ither": 1787, "ged": 1788, "\u0120rele": 1789, "\u0120Be": 1790, "\u0120difficult": 1791, "\u0120words": 1792, "\u0120enc": 1793, "stit": 1794, "\u0120experience": 1795, "aster": 1796, "\u0120specific": 1797, "hem": 1798, "tt": 1799, "ours": 1800, "\u0120results": 1801, "\u0120plants": 1802, "aken": 1803, "\u0120give": 1804, "\u0120death": 1805, "ont": 1806, "\u0120across": 1807, "-m": 1808, "\u0120conditions": 1809, "icro": 1810, "obal": 1811, "asing": 1812, "\u0120Wor": 1813, "ators": 1814, "\u0120ill": 1815, "\u0120seem": 1816, "not": 1817, "\u0120US": 1818, "\u0120appear": 1819, "\u0120sing": 1820, "etic": 1821, "\u0120try": 1822, "vious": 1823, "rug": 1824, "\u0120future": 1825, "\u0120$": 1826, "\u0120team": 1827, "\u0120tool": 1828, "\u0120special": 1829, "especially": 1830, "\u0120next": 1831, "\u0120begin": 1832, "\u0120toget": 1833, "\u0120together": 1834, "\u0120ways": 1835, "\u0120Or": 1836, "\u0120improve": 1837, "\u0120working": 1838, "\u0120business": 1839, "\u0120record": 1840, "\u0120various": 1841, "\u0120similar": 1842, "\u0120cr": 1843, "af": 1844, "\u0120applic": 1845, "\u0120clear": 1846, "\u0120century": 1847, "\u0120countries": 1848, "\u0120changes": 1849, "\u0120obs": 1850, "\u0120higher": 1851, "aves": 1852, "atch": 1853, "\u0120symptoms": 1854, "\u0120chem": 1855, "ique": 1856, "\u0120population": 1857, "ried": 1858, "\u0120[": 1859, "ored": 1860, "\u0120Ear": 1861, "\u0120mov": 1862, "St": 1863, "\u0120So": 1864, "ember": 1865, "\u0120polit": 1866, "!\u010a": 1867, "\u0120key": 1868, "\u0120colle": 1869, "\u0120enough": 1870, "\u0120All": 1871, "\u0120character": 1872, "\u0120types": 1873, "\u0120require": 1874, "\u0120discuss": 1875, "idd": 1876, "ned": 1877, "ruction": 1878, "\u0120er": 1879, "\u0120strong": 1880, "\u0120line": 1881, "\u0120ask": 1882, "\u0120Afric": 1883, "aining": 1884, "\u0120side": 1885, "\u0120complete": 1886, "\u0120least": 1887, "\u0120Bl": 1888, "\u0120crit": 1889, "orts": 1890, "\u0120gre": 1891, "\u0120author": 1892, "ilities": 1893, "cul": 1894, "\u0120cy": 1895, "ww": 1896, "\u0120On": 1897, "\u0120away": 1898, "aces": 1899, "\u0120exist": 1900, "oney": 1901, "most": 1902, "ribut": 1903, "omes": 1904, "be": 1905, "sw": 1906, "\u0120describ": 1907, "\u0120above": 1908, "\u0120kind": 1909, "\u0120especially": 1910, "\u0120patients": 1911, "iation": 1912, "ateg": 1913, "\u0120sens": 1914, "sp": 1915, "ode": 1916, "\u0120Christ": 1917, "\u0120protect": 1918, "\u0120effects": 1919, "\u0120necess": 1920, "\u0120mot": 1921, "\u0120respons": 1922, "\u0120net": 1923, "acc": 1924, "\u0120step": 1925, "\u0120big": 1926, "\u0120term": 1927, "\u0120Med": 1928, "\u0120full": 1929, "amm": 1930, "aching": 1931, "oot": 1932, "\u0120opt": 1933, "\u0120going": 1934, "ler": 1935, "An": 1936, "aring": 1937, "iting": 1938, "\u0120makes": 1939, "\u0120dig": 1940, "ilt": 1941, "\u0120however": 1942, "\u0120paper": 1943, "ush": 1944, "\u0120nut": 1945, "ray": 1946, "For": 1947, "ires": 1948, "\u0120physical": 1949, "-l": 1950, "60": 1951, "mit": 1952, "thing": 1953, "\u0120left": 1954, "selves": 1955, "\u0120science": 1956, "\u0120norm": 1957, "\u0120Fr": 1958, "\u0120sure": 1959, "-t": 1960, "ohn": 1961, "ym": 1962, "ables": 1963, "alf": 1964, "\u0120live": 1965, "\u0120prim": 1966, "\u0120cases": 1967, "ales": 1968, "acy": 1969, "let": 1970, "\u0120never": 1971, "isc": 1972, "pr": 1973, "\u0120wr": 1974, "ument": 1975, "\u0120researchers": 1976, "\u0120chall": 1977, "\u0120having": 1978, "\u0120Brit": 1979, "\u0120lower": 1980, "bon": 1981, "hern": 1982, "\u0120lot": 1983, "chie": 1984, "ysis": 1985, "\u0120'": 1986, "\u0120tru": 1987, "\u0120studies": 1988, "\u0120estab": 1989, "duct": 1990, "21": 1991, "\u0120ens": 1992, "\u0120role": 1993, "\u0120Some": 1994, "\u0120skills": 1995, "atures": 1996, "\u0120prop": 1997, "\u0120range": 1998, "\u0120sum": 1999, "oring": 2000, "\u0120story": 2001, "ready": 2002, "\u0120whether": 2003, "\u0120knowledge": 2004, "side": 2005, "lement": 2006, "\u0120below": 2007, "ipp": 2008, "\u0120consider": 2009, "\u0120z": 2010, "\u0120products": 2011, "\u0120mind": 2012, "min": 2013, "\u0120influ": 2014, "\u0120activities": 2015, "\u0120subject": 2016, "\u0120English": 2017, "\u0120quality": 2018, "\u0120ground": 2019, "\u0120pred": 2020, "\u0120general": 2021, "\u0120With": 2022, "\u0120account": 2023, "\u0120loss": 2024, "\u0120wind": 2025, "\u0120growth": 2026, "aut": 2027, "\u0120production": 2028, "80": 2029, "\u0120climate": 2030, "\u0120became": 2031, "\u0120really": 2032, "ges": 2033, "verage": 2034, "\u0120house": 2035, "When": 2036, "\u0120reduce": 2037, "\u0120city": 2038, "\u0120relations": 2039, "leep": 2040, "\u0120text": 2041, "omet": 2042, "app": 2043, "\u0120concer": 2044, "\u0120resources": 2045, "lo": 2046, "\u0120activity": 2047, "\u0120self": 2048, "ott": 2049, "ites": 2050, "\u0120further": 2051, "\u0120fund": 2052, "ery": 2053, "\u0120reason": 2054, "ung": 2055, "\u0120fall": 2056, "istic": 2057, "\u0120already": 2058, "\u0120developed": 2059, "\u0120medical": 2060, "\u0120word": 2061, "ream": 2062, "oman": 2063, "apt": 2064, "\u0120.": 2065, "\u0120War": 2066, "\u0120potential": 2067, "oura": 2068, "\u0120phot": 2069, "ency": 2070, "\u0120oil": 2071, "\u0120World": 2072, "\u0120skin": 2073, "ae": 2074, "\u0120value": 2075, "overed": 2076, "\u0120Health": 2077, "\u0120That": 2078, "\u0120flu": 2079, "\u0120question": 2080, "\u0120soil": 2081, "\u0120close": 2082, "\u0120polic": 2083, "\u0120according": 2084, "\u0120eff": 2085, "\u0120building": 2086, "\u0120drug": 2087, "\u0120done": 2088, "\u0120seen": 2089, "osis": 2090, "\u0120field": 2091, "ird": 2092, "\u0120sun": 2093, "\u0120achie": 2094, "ley": 2095, "amin": 2096, "\u0120questions": 2097, "\u0120healthy": 2098, "\u0120represent": 2099, "\u0120toward": 2100, "\u0120Dr": 2101, "ands": 2102, "\u0120One": 2103, "edi": 2104, "\u0120event": 2105, "\u0120ur": 2106, "iple": 2107, "\u0120red": 2108, "\u0120source": 2109, "\u0120surface": 2110, "\u0120issues": 2111, "ification": 2112, "\u0120circ": 2113, "\u0120pressure": 2114, "ann": 2115, "ibility": 2116, "\u0120groups": 2117, "\u0120site": 2118, "esc": 2119, "\u0120recogn": 2120, "by": 2121, "rams": 2122, "\u0120article": 2123, "\u0120deg": 2124, "\u0120recomm": 2125, "for": 2126, "\u0120Germ": 2127, ".\"\u010a": 2128, "fact": 2129, "\u0120employ": 2130, "\u0120situ": 2131, "\u0120mass": 2132, "NA": 2133, "\u0120five": 2134, "\u0120introdu": 2135, "\u0120model": 2136, "\u0120indic": 2137, "aim": 2138, "ued": 2139, "ips": 2140, "nal": 2141, "\u0120doct": 2142, "unt": 2143, "\u0120cut": 2144, "\u0120white": 2145, "augh": 2146, "\u0120particip": 2147, "sych": 2148, "\u0120week": 2149, "\u0120single": 2150, "\u0120rate": 2151, "\u0120created": 2152, "\u0120tradition": 2153, "ety": 2154, "\u0120either": 2155, "\u0120animals": 2156, "rel": 2157, "\u0120bat": 2158, "\u0120Go": 2159, "\u0120simple": 2160, "earch": 2161, "\u0120once": 2162, "\u0120collect": 2163, "\u0120address": 2164, "ask": 2165, "\u0120neg": 2166, "put": 2167, "\u0120size": 2168, "\u0120stress": 2169, "\u0120sound": 2170, "\u0120concept": 2171, "\u0120wide": 2172, "\u0120stat": 2173, "idered": 2174, "\u0120rather": 2175, "\u0120detail": 2176, "\u0120tell": 2177, "\u0120engine": 2178, "\u0120actually": 2179, "\u0120materials": 2180, "urity": 2181, "\u0120ann": 2182, "\u0120weight": 2183, "ival": 2184, "ivity": 2185, "\u0120John": 2186, "\u0120prob": 2187, "\u0120diet": 2188, "\u0120abs": 2189, "\u0120understanding": 2190, ",\u010a": 2191, "\u0120adult": 2192, "\u0120Car": 2193, "rect": 2194, "\u0120student": 2195, "\u0120Le": 2196, "erence": 2197, "\u0120init": 2198, "\u0120Cal": 2199, "\u0120global": 2200, "str": 2201, "\u0120opportun": 2202, "\u0120America": 2203, "\u0120quick": 2204, "\u0120South": 2205, "\u0120fat": 2206, "\u0120writing": 2207, "ening": 2208, "\u0120living": 2209, "\u0120offic": 2210, "\u0120comes": 2211, "\u0120Intern": 2212, "\u0120fri": 2213, "\u0120market": 2214, "90": 2215, "\u0120She": 2216, "roll": 2217, "fficient": 2218, "\u0120fish": 2219, "\u0120considered": 2220, "\u0120sal": 2221, "\u0120ability": 2222, "\u0120dog": 2223, "\u0120lay": 2224, "\u0120North": 2225, "\u0120frequ": 2226, "reme": 2227, "\u0120national": 2228, "24": 2229, "\u0120condition": 2230, "\u0120black": 2231, "oon": 2232, "\u0120meet": 2233, "\u0120taken": 2234, "rict": 2235, "\u0120Im": 2236, "\u0120practice": 2237, "\u0120associated": 2238, "\u0120answ": 2239, "\u0120By": 2240, "\u0120tot": 2241, "ule": 2242, "\u0120published": 2243, "\u0120whole": 2244, "\u0120exerc": 2245, "\u0120pay": 2246, "ison": 2247, "\u0120needed": 2248, "To": 2249, "\u0120fail": 2250, "\u0120hold": 2251, "iol": 2252, "aging": 2253, "\u0120increased": 2254, "ibr": 2255, "gest": 2256, "ump": 2257, "\u0120provides": 2258, "\u0120Stud": 2259, "\u0120ver": 2260, "\u0120parts": 2261, "\u0120histor": 2262, "ensive": 2263, "val": 2264, "\u0120famil": 2265, "ications": 2266, "\u0120experien": 2267, "ivil": 2268, "\u0120Earth": 2269, "\u0120Ge": 2270, "\u0120related": 2271, "\u0120evidence": 2272, "ER": 2273, "\u0120gas": 2274, "\u0120repl": 2275, "\u0120observ": 2276, "\u0120states": 2277, "\u0120green": 2278, "\u0120feed": 2279, "\u0120avoid": 2280, "fer": 2281, "\u00e2\u0122\u00a6": 2282, "70": 2283, "\u0120Gen": 2284, "\u0120required": 2285, "\u0120parents": 2286, "urch": 2287, "\u0120Sy": 2288, "light": 2289, "\u0120idea": 2290, "\u0120themselves": 2291, "\u0120sent": 2292, "22": 2293, "\u0120doc": 2294, "You": 2295, "\u0120factors": 2296, "\u0120Ass": 2297, "\u0120Tr": 2298, "\u0120nature": 2299, "\u0120dom": 2300, "Wh": 2301, "\u0120complex": 2302, "\u0120micro": 2303, "SA": 2304, "\u0120modern": 2305, "illed": 2306, "\u0120entire": 2307, "Al": 2308, "\u0120=": 2309, "\u0120produce": 2310, "\u0120cat": 2311, "\u0120computer": 2312, "\u0120maint": 2313, "lying": 2314, "mber": 2315, "\u0120chemical": 2316, "ging": 2317, "\u0120coll": 2318, "Ch": 2319, "\u0120members": 2320, "\u0120purp": 2321, "\u0120relationship": 2322, "iam": 2323, "\u0120reading": 2324, "\u0120Mar": 2325, "aced": 2326, "\u0120almost": 2327, "\u0120months": 2328, "epend": 2329, "erve": 2330, "\u0120came": 2331, "\u0120prote": 2332, "\u0120soft": 2333, "\u0120Ab": 2334, "\u0120spe": 2335, "\u0120port": 2336, "\u0120thought": 2337, "\u0120economic": 2338, "reg": 2339, "\u0120dest": 2340, "\u0120Am": 2341, "\u0120services": 2342, "\u0120money": 2343, "\u0120management": 2344, "ublic": 2345, "\u0120cannot": 2346, "\u0120return": 2347, "utions": 2348, "hing": 2349, "acks": 2350, "\u0120link": 2351, "\u0120job": 2352, "oes": 2353, "\u0120Aust": 2354, "\u0120clean": 2355, "enn": 2356, "\u0120react": 2357, "\u0120arch": 2358, "aged": 2359, "ores": 2360, "\u0120suff": 2361, "\u0120online": 2362, "artment": 2363, "\u0120sleep": 2364, "\u0120half": 2365, "vere": 2366, "uel": 2367, "\u0120measure": 2368, "\u0120la": 2369, "emic": 2370, "urs": 2371, "\u0120vers": 2372, "ney": 2373, "\u0120assess": 2374, "ront": 2375, "ply": 2376, "\u0120throughout": 2377, "\u0120stop": 2378, "\u0120popular": 2379, "sequ": 2380, "\u0120liter": 2381, "\u0120personal": 2382, "//": 2383, "itud": 2384, "ened": 2385, "yn": 2386, "\u0120Pr": 2387, "cient": 2388, "\u0120approach": 2389, "\u0120causes": 2390, "ections": 2391, "\u0120emer": 2392, "inter": 2393, "\u0120hab": 2394, "abor": 2395, "\u0120relig": 2396, "\u0120May": 2397, "oses": 2398, "ccording": 2399, "\u0120farm": 2400, "\u0120political": 2401, "oph": 2402, "chan": 2403, "utes": 2404, "\u0120ge": 2405, "\u0120ever": 2406, "\u0120taking": 2407, ".com": 2408, "\u0120Man": 2409, "\u0120super": 2410, "bo": 2411, "\u0120diagn": 2412, "\u0120bar": 2413, "\u0120necessary": 2414, "\u0120shows": 2415, "\u0120path": 2416, "rown": 2417, "\u0120recent": 2418, "\u0120color": 2419, "\u0120analysis": 2420, "izing": 2421, "\u0120heat": 2422, "\u0120temperature": 2423, "ze": 2424, "yle": 2425, "\u0120Dep": 2426, "eds": 2427, "\u0120talk": 2428, "hib": 2429, "\u0120inj": 2430, "ences": 2431, "\u0120began": 2432, "\u0120itself": 2433, "\u0120increasing": 2434, "\u0120easy": 2435, "\u0120conduct": 2436, "\u0120region": 2437, "erous": 2438, "\u0120therap": 2439, "\u0120company": 2440, "\u0120benefits": 2441, "\u0120individuals": 2442, "\u0120industry": 2443, "\u0120caused": 2444, "astic": 2445, "\u0120check": 2446, "\u0120content": 2447, "\u0120pattern": 2448, "\u0120arg": 2449, "ma": 2450, "\u0120rights": 2451, "\u0120sam": 2452, "iddle": 2453, "\u0120tar": 2454, "rad": 2455, "\u0120safe": 2456, "oll": 2457, "\u0120lives": 2458, "ournal": 2459, "\u0120environmental": 2460, "\u0120hours": 2461, "\u0120spread": 2462, "-based": 2463, "\u0120scientists": 2464, "\u0120contain": 2465, "\u0120disord": 2466, "\u0120break": 2467, "\u0120Act": 2468, "\u0120cop": 2469, "\u0120helps": 2470, "\u0120upon": 2471, "\u0120built": 2472, "\u0120mach": 2473, "\u0120longer": 2474, "olic": 2475, "iction": 2476, "anced": 2477, "\u0120vide": 2478, "\u0120interact": 2479, "\u0120Cont": 2480, "\u0120fru": 2481, "uck": 2482, "\u0120contact": 2483, "://": 2484, "\u0120fire": 2485, "lor": 2486, "ronic": 2487, "ai": 2488, "\u0120travel": 2489, "\u0120poll": 2490, "\u0120training": 2491, "\u0120took": 2492, "\u0120eat": 2493, "\u0120schools": 2494, "ising": 2495, "\u0120carbon": 2496, "\u0120bacter": 2497, "pid": 2498, "abet": 2499, "ober": 2500, "\u0120structure": 2501, "\u0120ut": 2502, "eter": 2503, "\u0120bur": 2504, "\u0120wild": 2505, "\u0120foods": 2506, "\u0120designed": 2507, "ese": 2508, "\u0120arr": 2509, "ches": 2510, "\u0120yet": 2511, "aily": 2512, "go": 2513, "\u0120deb": 2514, "\u0120Comp": 2515, "\u0120While": 2516, "onse": 2517, "\u0120priv": 2518, "usion": 2519, "nces": 2520, "\u0120regular": 2521, "\u0120ce": 2522, "\u0120six": 2523, "reng": 2524, "\u0120includes": 2525, "\u0120surv": 2526, "-w": 2527, "\u0120mor": 2528, "\u0120Gu": 2529, "\u0120behavior": 2530, "\u0120separ": 2531, "\u0120society": 2532, "\u0120Rep": 2533, "\u0120action": 2534, "ming": 2535, "\u0120School": 2536, "\u0120sense": 2537, "org": 2538, "itary": 2539, "\u0120lif": 2540, "ume": 2541, "But": 2542, "\u0120meaning": 2543, "hold": 2544, "\u0120variety": 2545, "\u0120etc": 2546, "\u0120somet": 2547, "fully": 2548, "\u0120After": 2549, "icles": 2550, "\u0120Soc": 2551, "\u0120previous": 2552, "ufact": 2553, "\u0120Canad": 2554, "\u0120ste": 2555, "lt": 2556, "\u0120total": 2557, "ules": 2558, "\u0120damage": 2559, "gar": 2560, "\u0120X": 2561, "\u0120State": 2562, "ows": 2563, "eb": 2564, "\u0120positive": 2565, "\u0120average": 2566, "itation": 2567, "estern": 2568, "\u0120thing": 2569, "aving": 2570, "\u0120matter": 2571, "\u0120princ": 2572, "\u0120service": 2573, "yl": 2574, "\u0120terms": 2575, "mb": 2576, "\u0120bring": 2577, "ricult": 2578, "\u0120sat": 2579, "\u0120slow": 2580, "het": 2581, "ils": 2582, "apan": 2583, "\u0120uses": 2584, "\u0120kids": 2585, "\u0120ast": 2586, "hood": 2587, "23": 2588, "ID": 2589, "\u0120fig": 2590, "\u0120visit": 2591, "\u0120deep": 2592, "\u0120electric": 2593, "\u0120experim": 2594, "ively": 2595, "ulations": 2596, "\u0120British": 2597, "\u0120regard": 2598, "vey": 2599, "\u0120His": 2600, "\u0120sex": 2601, "\u0120methods": 2602, "\u0120conc": 2603, "ES": 2604, "empt": 2605, "lex": 2606, "\u0120Co": 2607, "istics": 2608, "\u0120identify": 2609, "\u0120heav": 2610, "inary": 2611, "ades": 2612, "lands": 2613, "\u0120Instit": 2614, "\u0120Research": 2615, "\u0120encoura": 2616, "\u0120music": 2617, "\u0120sometimes": 2618, "imately": 2619, "\u0120compan": 2620, "ropri": 2621, "\u0120Pe": 2622, "\u0120doing": 2623, "\u0120simply": 2624, "ript": 2625, "ext": 2626, "\u0120face": 2627, "asc": 2628, "\u0120normal": 2629, "\u0120developing": 2630, "\u0120issue": 2631, "\u0120webs": 2632, "ched": 2633, "\u0120programs": 2634, "\u0120provided": 2635, "\u0120Hist": 2636, "ns": 2637, "\u0120virus": 2638, "\u0120threat": 2639, "\u0120standard": 2640, "\u0120claim": 2641, "room": 2642, "\u0120position": 2643, "\u0120shown": 2644, "icine": 2645, "\u0120India": 2646, "\u0120led": 2647, "\u0120pict": 2648, "\u0120earth": 2649, "\u0120sources": 2650, "\u0120growing": 2651, "\u0120basic": 2652, "\u0120subst": 2653, "istance": 2654, "\u0120fem": 2655, "amed": 2656, "\u0120emot": 2657, "\u0120prec": 2658, "\u0120doesn": 2659, "\u0120ensure": 2660, "\u0120essential": 2661, "ederal": 2662, "\u0120challeng": 2663, "\u0120York": 2664, "\u0120page": 2665, "\u0120exc": 2666, "minist": 2667, "ene": 2668, "\u0120bal": 2669, "\u0120rev": 2670, "\u0120CO": 2671, "\u0120streng": 2672, "\u0120written": 2673, "\u0120target": 2674, "oor": 2675, "\u0120integ": 2676, "aff": 2677, "elling": 2678, "rought": 2679, "\u0120image": 2680, "\u0120believe": 2681, "\u0120true": 2682, "\u0120vari": 2683, "\u0120teachers": 2684, "\u0120love": 2685, "\u0120events": 2686, "verse": 2687, "\u0120sust": 2688, "\u0120bab": 2689, "\u0120compl": 2690, "aches": 2691, "\u0120outside": 2692, "ength": 2693, "rast": 2694, "\u0120getting": 2695, "\u0120compon": 2696, "\u0120origin": 2697, "\u0120involved": 2698, "ights": 2699, "\u0120remov": 2700, "rior": 2701, "irm": 2702, "\u0120ec": 2703, "\u0120greater": 2704, "aling": 2705, "\u0120tend": 2706, "my": 2707, "\u0120extreme": 2708, "\u0120feet": 2709, "\u0120mechan": 2710, "\u0120share": 2711, "uge": 2712, "\u0120culture": 2713, "issions": 2714, "duc": 2715, "AT": 2716, "\u0120psych": 2717, "\u0120movement": 2718, "\u0120harm": 2719, "\u0120review": 2720, "\u0120vacc": 2721, "\u0120forest": 2722, "AR": 2723, "aries": 2724, "oles": 2725, "\u0120serious": 2726, "\u0120relative": 2727, "\u0120response": 2728, "\u0120safety": 2729, "\u0120numbers": 2730, "\u0120attention": 2731, "lease": 2732, "know": 2733, "\u0120veget": 2734, "\u0120manufact": 2735, "\u0120viol": 2736, "\u0120Jew": 2737, "\u0120cust": 2738, "ises": 2739, "\u0120wood": 2740, "\u0120particularly": 2741, "\u0120Em": 2742, "\u0120someone": 2743, "\u0120draw": 2744, "\u0120network": 2745, "\u0120Science": 2746, "arily": 2747, "ctions": 2748, "-in": 2749, "\u0120poor": 2750, "ems": 2751, "\u0120forms": 2752, "\u0120aware": 2753, "\u0120ox": 2754, "\u0120Japan": 2755, "\u0120animal": 2756, "ials": 2757, "\u0120accept": 2758, "\u0120takes": 2759, "\u0120produced": 2760, "mon": 2761, "\u0120ideas": 2762, "\u0120lack": 2763, "\u0120displ": 2764, "\u0120squ": 2765, "ister": 2766, "ervation": 2767, "new": 2768, "\u0120diseases": 2769, "\u0120--": 2770, "\u0120Austral": 2771, "\u0120refer": 2772, "umb": 2773, "ners": 2774, "\u0120looking": 2775, "\u0120compet": 2776, "lies": 2777, "\u0120print": 2778, "\u0120demon": 2779, "...": 2780, "alu": 2781, "\u0120easily": 2782, "\u0120defin": 2783, "09": 2784, "\u0120magn": 2785, "\u0120late": 2786, "\u0120correct": 2787, "wh": 2788, "\u0120patient": 2789, "\u0120daily": 2790, "\u0120hyd": 2791, "\u0120bra": 2792, "\u0120ago": 2793, "\u0120camp": 2794, "\u0120htt": 2795, "\u0120continue": 2796, "\u0120generally": 2797, "\u0120warm": 2798, "\u0120Su": 2799, "\u0120Par": 2800, "\u0120Your": 2801, "rench": 2802, "eration": 2803, "osing": 2804, "\u0120implement": 2805, "osure": 2806, "ground": 2807, "08": 2808, "\u0120tools": 2809, "itor": 2810, "\u0120reported": 2811, "\u0120prep": 2812, "\u0120speed": 2813, "\u0120ir": 2814, "\u0120log": 2815, "ban": 2816, "\u0120series": 2817, "atives": 2818, "\u0120Many": 2819, "\u0120allows": 2820, "\u0120essay": 2821, "\u0120King": 2822, "\u0120inside": 2823, "\u0120select": 2824, "rated": 2825, "\u0120mess": 2826, "\u0120started": 2827, "\u0120media": 2828, "\u0120stra": 2829, "rim": 2830, "\u0120lat": 2831, "\u0120mental": 2832, "\u0120financ": 2833, "\u0120tree": 2834, "\u0120tax": 2835, "\u0120gard": 2836, "erg": 2837, "\u0120Do": 2838, "\u0120No": 2839, "\u0120eye": 2840, "ads": 2841, "abetes": 2842, ".g": 2843, "ography": 2844, "set": 2845, "\u0120solar": 2846, "\u0120night": 2847, "\u0120humans": 2848, "\u0120probably": 2849, "\u0120Pres": 2850, "\u0120dang": 2851, "raft": 2852, "ecause": 2853, "\u0120/": 2854, "ucle": 2855, "\u0120books": 2856, "\u0120Count": 2857, "\u0120sea": 2858, "01": 2859, "\u0120original": 2860, "\u0120ap": 2861, "\u0120emb": 2862, "\u0120tur": 2863, "\u0120II": 2864, "\u0120added": 2865, "\u0120Center": 2866, "osition": 2867, "\u0120vit": 2868, "\u0120quickly": 2869, "\u0120unique": 2870, "\u0120determine": 2871, "\u0120cover": 2872, "\u0120trees": 2873, "\u0120included": 2874, "hest": 2875, "dom": 2876, "sh": 2877, "\u0120wall": 2878, "fect": 2879, "overy": 2880, "ached": 2881, "iency": 2882, "\u0120tiss": 2883, "ties": 2884, "ls": 2885, "\u0120communities": 2886, "\u0120colon": 2887, "\u00c3\u00a9": 2888, "IN": 2889, "isions": 2890, "\u0120China": 2891, "\u0120consist": 2892, "\u00e2\u0122\u013bve": 2893, "\u0120primary": 2894, "\u00e2\u0122\u013bll": 2895, "\u0120achieve": 2896, "ellow": 2897, "where": 2898, "\u0120dry": 2899, "\u0120offer": 2900, "\u0120performance": 2901, "\u0120scientific": 2902, "asons": 2903, "\u0120traditional": 2904, "\u0120difference": 2905, "inks": 2906, "\u0120write": 2907, "\u0120companies": 2908, "imum": 2909, "\u0120instead": 2910, "\u0120attack": 2911, "\u0120Pre": 2912, "\u0120respect": 2913, "\u0120App": 2914, "\u0120|": 2915, "\u0120doctor": 2916, "\u0120answer": 2917, "iot": 2918, "ancy": 2919, "\u0120quite": 2920, "\u0120drink": 2921, "\u0120independ": 2922, "\u0120infection": 2923, "--": 2924, "\u0120mother": 2925, "\u0120attempt": 2926, "cies": 2927, "\u0120coun": 2928, "ana": 2929, "\u0120Per": 2930, "\u0120aff": 2931, "26": 2932, "\u0120Min": 2933, "\u0120force": 2934, "nov": 2935, "\u0120Sec": 2936, "ops": 2937, "pro": 2938, "ounds": 2939, "iforn": 2940, "\u0120multiple": 2941, "\u0120exercise": 2942, "ided": 2943, "\u0120thous": 2944, "\u0120international": 2945, "\u0120estim": 2946, "\u0120progress": 2947, "\u0120nation": 2948, "ender": 2949, "\u0120sil": 2950, "\u0120Most": 2951, "\u0120points": 2952, "ief": 2953, "idge": 2954, "One": 2955, "\u0120larger": 2956, "\u00e2\u0122\u00a2": 2957, "\u0120\u00c2": 2958, "\u0120i": 2959, "\u0120dou": 2960, "\u0120More": 2961, "\u0120severe": 2962, "\u0120Me": 2963, "cean": 2964, "07": 2965, "ension": 2966, "right": 2967, "\u0120concent": 2968, "28": 2969, "On": 2970, "\u0120Will": 2971, "ying": 2972, "\u0120bit": 2973, "\u0120rout": 2974, "\u0120critical": 2975, "IS": 2976, "joy": 2977, "\u0120Ne": 2978, "\u0120Qu": 2979, "\u0120walk": 2980, "useum": 2981, "\u0120decre": 2982, "\u0120investig": 2983, "ino": 2984, "\u0120appropri": 2985, "-h": 2986, "rs": 2987, "\u0120birth": 2988, "\u0120Institute": 2989, "\u0120video": 2990, "rate": 2991, "\u0120stay": 2992, "\u0120ful": 2993, "\u0120document": 2994, "\u0120policy": 2995, "\u0120compared": 2996, "\u0120analy": 2997, "\u0120behind": 2998, "\u0120capt": 2999, "\u0120highly": 3000, "\u0120reflect": 3001, "\u0120bad": 3002, "ifornia": 3003, "27": 3004, "\u0120leaders": 3005, "vention": 3006, "ribution": 3007, "\u0120cross": 3008, "\u0120cit": 3009, "\u0120evalu": 3010, "\u0120foot": 3011, "\u0120theory": 3012, "pe": 3013, "\u0120commit": 3014, "iques": 3015, "\u0120town": 3016, "\u0120Educ": 3017, "icated": 3018, "\u0120acid": 3019, "itis": 3020, "\u0120extra": 3021, "oming": 3022, "\u0120active": 3023, "term": 3024, "cell": 3025, "uries": 3026, "\u0120directly": 3027, "\u0120leading": 3028, "\u0120altern": 3029, "\u0120reve": 3030, "\u0120Har": 3031, "\u0120supply": 3032, "\u0120aim": 3033, "gency": 3034, "haps": 3035, "like": 3036, "\u0120families": 3037, "\u0120negative": 3038, "35": 3039, "\u0120fav": 3040, "\u0120express": 3041, "\u0120Ed": 3042, "\u0120European": 3043, "anks": 3044, "\u0120immedi": 3045, "\u0120speak": 3046, "\u0120additional": 3047, "05": 3048, "\u0120third": 3049, "itude": 3050, "\u0120card": 3051, "\u0120har": 3052, "rition": 3053, "gn": 3054, "\u0120waste": 3055, "\u0120Cons": 3056, "\u0120security": 3057, "\u0120bacteria": 3058, "So": 3059, "\u0120fa": 3060, "\u0120tri": 3061, "\u0120teaching": 3062, "\u0120Int": 3063, "erson": 3064, "hel": 3065, "\u0120hot": 3066, "\u0120sold": 3067, "\u0120habit": 3068, "\u0120Africa": 3069, "45": 3070, "\u0120front": 3071, "\u0120therefore": 3072, "\u0120useful": 3073, "\u0120custom": 3074, "\u0120eth": 3075, "\u0120devices": 3076, "\u0120minutes": 3077, "\u0120software": 3078, "lied": 3079, "\u0120accur": 3080, "\u0120teeth": 3081, "ashing": 3082, "\u0120civil": 3083, "rig": 3084, "rew": 3085, "\u0120contains": 3086, "ift": 3087, "undred": 3088, "\u0120soon": 3089, "\u0120aud": 3090, "\u0120proced": 3091, "\u0120Us": 3092, "\u0120news": 3093, "\u0120aspect": 3094, "\u0120transport": 3095, "\u0120sustain": 3096, "\u0120adults": 3097, "\u0120hor": 3098, "\u0120pack": 3099, "\u0120expect": 3100, "\u0120instit": 3101, "\u0120established": 3102, "\u0120thinking": 3103, "\u0120demonstr": 3104, "\u0120Bo": 3105, "\u0120Child": 3106, "ror": 3107, "\u0120California": 3108, "uth": 3109, "\u0120mill": 3110, "elt": 3111, "\u0120broad": 3112, "\u0120Gl": 3113, "\u0120leaves": 3114, "vant": 3115, "bol": 3116, "\u0120sn": 3117, "\u0120features": 3118, "\u0120clin": 3119, "\u0120protein": 3120, "\u0120search": 3121, "\u0120hands": 3122, "He": 3123, "\u0120central": 3124, "\u0120ones": 3125, "coh": 3126, "\u0120fast": 3127, "\u0120purpose": 3128, "\u0120Department": 3129, "oly": 3130, "-g": 3131, "\u0120Of": 3132, "-y": 3133, "\u0120thus": 3134, "\u0120prior": 3135, "\u0120exact": 3136, "arr": 3137, "ille": 3138, "\u0120Indian": 3139, "\u0120block": 3140, "ha": 3141, "ulate": 3142, "aly": 3143, "ologies": 3144, "\u0120towards": 3145, "\u0120dark": 3146, "\u0120quant": 3147, "\u0120Ag": 3148, "\u0120beginning": 3149, "na": 3150, "\u0120largest": 3151, "ching": 3152, "\u0120images": 3153, "rogen": 3154, "\u0120Part": 3155, "\u0120website": 3156, "\u0120financial": 3157, "\u0120enjoy": 3158, "'re": 3159, "iers": 3160, "\u0120ancient": 3161, "\u0120host": 3162, "\u0120French": 3163, "\u0120Jan": 3164, "06": 3165, "\u0120eating": 3166, "\u0120held": 3167, "rial": 3168, "ius": 3169, "\u0120elements": 3170, "\u0120weeks": 3171, "\u0120requires": 3172, "\u0120contribut": 3173, "\u0120breat": 3174, "uary": 3175, "\u0120veh": 3176, "\u0120div": 3177, "\u0120base": 3178, "\u0120fram": 3179, "lier": 3180, "\u0120Ac": 3181, "yond": 3182, "\u0120goal": 3183, ";\u010a": 3184, "cial": 3185, "\u0120typically": 3186, "\u0120El": 3187, "fort": 3188, "ipment": 3189, "isms": 3190, "\u0120Other": 3191, "bor": 3192, "\u0120although": 3193, "\u0120egg": 3194, "\u0120nearly": 3195, "\u0120mount": 3196, "\u0120situation": 3197, "\u0120Not": 3198, "\u0120Ju": 3199, "hens": 3200, "\u0120African": 3201, "cles": 3202, "\u0120strateg": 3203, "\u0120game": 3204, "cks": 3205, "cil": 3206, "\u0120tests": 3207, "\u0120cool": 3208, "\u0120application": 3209, "\u0120install": 3210, "\u0120fight": 3211, "\u0120spir": 3212, "den": 3213, "\u0120summer": 3214, "iber": 3215, "mar": 3216, "ON": 3217, "\u0120projects": 3218, "\u0120season": 3219, "\u0120values": 3220, "\u0120length": 3221, "\u0120West": 3222, "\u0120limited": 3223, "outhern": 3224, "\u0120rates": 3225, "-st": 3226, "\u0120creating": 3227, "\u0120sugar": 3228, "\u0120reach": 3229, "\u0120costs": 3230, "ields": 3231, "formation": 3232, "\u0120labor": 3233, "AN": 3234, "\u0120protection": 3235, "\u0120mom": 3236, "\u0120Day": 3237, "iter": 3238, "\u0120solution": 3239, "\u0120rare": 3240, "\u0120cold": 3241, "\u0120eyes": 3242, "\u0120processes": 3243, "\u0120located": 3244, "idents": 3245, "\u0120techniques": 3246, "\u0120lost": 3247, "\u0120military": 3248, "\u0120Aug": 3249, "\u0120River": 3250, "\u0120ang": 3251, "\u0120Here": 3252, "ceed": 3253, "\u0120Ke": 3254, "\u0120memory": 3255, "\u0120agricult": 3256, "\u0120Sm": 3257, "sect": 3258, "\u0120places": 3259, "\u0120importance": 3260, "imin": 3261, "These": 3262, "pper": 3263, "\u0120carry": 3264, "\u0120Rec": 3265, "come": 3266, "\u0120jo": 3267, "\u0120,": 3268, "son": 3269, "\u0120seems": 3270, "\u0120impl": 3271, "29": 3272, "\u0120wa": 3273, "\u0120fit": 3274, "\u0120applications": 3275, "\u0120surround": 3276, "\u0120cred": 3277, "iece": 3278, "\u0120table": 3279, "entially": 3280, "\u0120born": 3281, "\u0120mole": 3282, "rote": 3283, "\u0120crop": 3284, "OR": 3285, "\u0120communication": 3286, "\u0120testing": 3287, "\u0120ult": 3288, "\u0120demand": 3289, "inct": 3290, "\u0120hundred": 3291, "\u0120digital": 3292, "\u0120got": 3293, "istry": 3294, "\u0120teacher": 3295, "orthern": 3296, "____": 3297, "\u0120diabetes": 3298, "ription": 3299, "\u0120behavi": 3300, "\u0120Americans": 3301, "vest": 3302, "\u0120cele": 3303, "\u0120went": 3304, "\u0120becomes": 3305, "\u0120section": 3306, "And": 3307, "\u0120x": 3308, "equ": 3309, "resh": 3310, "oud": 3311, "\u0120stru": 3312, "pril": 3313, "-to": 3314, "\u0120workers": 3315, "\u0120else": 3316, "izations": 3317, "\u0120whose": 3318, "\u0120Although": 3319, "03": 3320, "odies": 3321, "02": 3322, "\u0120Her": 3323, "\u0120Reg": 3324, "IC": 3325, "imal": 3326, "\u0120fuel": 3327, "AS": 3328, "\u0120stri": 3329, "\u0120device": 3330, "\u0120yourself": 3331, "\u0120decl": 3332, "\u0120web": 3333, "itect": 3334, "\u0120capac": 3335, "cohol": 3336, "\u0120obt": 3337, "\u0120ice": 3338, "\u0120mix": 3339, "04": 3340, "\u0120adapt": 3341, "\u0120nucle": 3342, "\u0120lines": 3343, "At": 3344, "\u0120friends": 3345, "\u0120decision": 3346, "\u0120beaut": 3347, "31": 3348, "\u0120examples": 3349, "ding": 3350, "\u0120weather": 3351, "\u0120respond": 3352, "\u0120gives": 3353, "\u0120affected": 3354, "lection": 3355, "ibrary": 3356, "\u0120pan": 3357, "\u0120influence": 3358, "ipl": 3359, "\u0120bul": 3360, "izes": 3361, "\u0120Mon": 3362, "\u0120sites": 3363, "\u0120Russ": 3364, "\u0120Lear": 3365, "\u0120rapid": 3366, "ED": 3367, "While": 3368, "By": 3369, "\u0120Art": 3370, "\u0120Jes": 3371, "\u0120north": 3372, "\u0120recently": 3373, "\u0120appropriate": 3374, "\u0120Gree": 3375, "\u0120remains": 3376, "\u0120Tra": 3377, "\u0120bott": 3378, "\u0120choose": 3379, "\u0120efforts": 3380, "\u0120center": 3381, ".org": 3382, "\u0120cra": 3383, "\u0120German": 3384, "\u0120older": 3385, "IV": 3386, "\u0120March": 3387, "\u0120code": 3388, "\u0120connect": 3389, "estic": 3390, "\u0120Sw": 3391, "\u0120deal": 3392, "omb": 3393, "\u0120remain": 3394, "oke": 3395, "\u0120private": 3396, "mosp": 3397, "-term": 3398, "\u0120miles": 3399, "\u0120cam": 3400, "\u0120rock": 3401, "\u0120coast": 3402, "\u0120Serv": 3403, "\u0120equipment": 3404, "\u0120construction": 3405, "wise": 3406, "\u0120autom": 3407, "load": 3408, "\u0120Canada": 3409, "\u0120told": 3410, "\u0120advant": 3411, "\u0120First": 3412, "\u0120therapy": 3413, "\u0120isn": 3414, "\u0120room": 3415, "With": 3416, "Ex": 3417, "\u0120Ant": 3418, "used": 3419, "\u0120screen": 3420, "\u0120benefit": 3421, "\u0120adop": 3422, "king": 3423, "\u0120professional": 3424, "iles": 3425, "\u0120brought": 3426, "\u0120Tw": 3427, "PA": 3428, "\u0120pregn": 3429, "\u0120rain": 3430, "\u0120capital": 3431, "\u0120disp": 3432, "\u0120responsible": 3433, "\u0120currently": 3434, "\u0120objects": 3435, "\u0120reasons": 3436, "\u0120everything": 3437, "ran": 3438, "head": 3439, "\u0120adj": 3440, "\u0120stage": 3441, "\u0120shape": 3442, "uman": 3443, "\u0120south": 3444, "\u0120cultural": 3445, "\u0120received": 3446, "\u0120interp": 3447, "\u0120planet": 3448, "32": 3449, "\u0120administ": 3450, "\u0120occurs": 3451, "\u0120International": 3452, "\u0120hope": 3453, "uous": 3454, "\u0120gradu": 3455, "\u0120opportunity": 3456, "itable": 3457, "\u0120Char": 3458, "\u0120dead": 3459, "\u0120middle": 3460, "\u0120Oct": 3461, "\u0120except": 3462, "\u0120everyone": 3463, "\u0120winter": 3464, "ype": 3465, "\u0120fra": 3466, "\u0120receive": 3467, "aught": 3468, "\u0120rob": 3469, "mission": 3470, "\u0120anything": 3471, "-year": 3472, "\u0120providing": 3473, "\u0120imag": 3474, "\u0120ep": 3475, "\u0120drugs": 3476, "ula": 3477, "\u0120expected": 3478, "\u0120Associ": 3479, "\u0120birds": 3480, "iar": 3481, "\u0120Prog": 3482, "\u0120property": 3483, "\u0120cou": 3484, "\u0120smaller": 3485, "\u0120guid": 3486, "\u0120calcul": 3487, "illing": 3488, "\u0120recommend": 3489, "\u0120practices": 3490, "\u0120commonly": 3491, "rees": 3492, "\u0120insp": 3493, "\u0120billion": 3494, "\u0120electr": 3495, "\u0120From": 3496, "\u0120pet": 3497, "\u0120cru": 3498, "\u0120exposure": 3499, "ster": 3500, "inese": 3501, "\u0120agree": 3502, "oday": 3503, "\u0120overall": 3504, "EN": 3505, "ribute": 3506, "\u0120unc": 3507, "\u0120establish": 3508, "\u0120England": 3509, "\u0120swe": 3510, "\u0120basis": 3511, "\u0120described": 3512, "\u0120joint": 3513, "\u0120Park": 3514, "\u0120Fl": 3515, "\u0120trying": 3516, "olar": 3517, "\u0120transl": 3518, "75": 3519, "orpor": 3520, "\u0120June": 3521, "\u0120mis": 3522, "\u0120location": 3523, "\u0120date": 3524, "tery": 3525, "att": 3526, "\u0120Sept": 3527, "\u0120died": 3528, "uments": 3529, "\u0120ball": 3530, "\u0120won": 3531, "\u0120citiz": 3532, "\u0120History": 3533, "\u0120economy": 3534, "\u0120users": 3535, "\u0120baby": 3536, "99": 3537, "\u0120Gra": 3538, "ulated": 3539, "\u0120vict": 3540, "www": 3541, "\u0120hous": 3542, "\u0120enh": 3543, "ica": 3544, "\u0120Mus": 3545, "\u0120file": 3546, "ilos": 3547, "\u0120goes": 3548, "\u0120laws": 3549, "omy": 3550, "\u0120immune": 3551, "\u0120discovered": 3552, "\u0120rise": 3553, "\u0120Bar": 3554, "\u0120Read": 3555, "\u0120anti": 3556, "\u0120depend": 3557, "\u0120mention": 3558, "\u0120visual": 3559, "ospital": 3560, "icate": 3561, "\u0120Education": 3562, "uff": 3563, "\u0120final": 3564, "\u0120controll": 3565, "\u0120standards": 3566, "\u0120mid": 3567, "\u0120father": 3568, "\u0120My": 3569, "\u0120fruit": 3570, "vert": 3571, "ashington": 3572, "\u0120steps": 3573, "exic": 3574, "\u0120federal": 3575, "\u0120completely": 3576, "\u0120strength": 3577, "arian": 3578, "36": 3579, "\u0120pen": 3580, "\u0120scale": 3581, "\u0120beyond": 3582, "\u0120nutri": 3583, "ests": 3584, "ellig": 3585, "\u0120Techn": 3586, "eal": 3587, "\u0120trade": 3588, "see": 3589, "enge": 3590, "\u0120user": 3591, "\u0120saw": 3592, "\u0120track": 3593, "uk": 3594, "ama": 3595, "\u0120beg": 3596, "\u0120cook": 3597, "\u0120interesting": 3598, "\u0120sett": 3599, "\u0120illness": 3600, "\u0120mouth": 3601, "\u0120signs": 3602, "\u0120successful": 3603, "\u0120collection": 3604, "\u0120tit": 3605, "\u0120purch": 3606, "\u0120August": 3607, "95": 3608, "\u0120named": 3609, "\u0120President": 3610, "\u0120Our": 3611, "\u0120via": 3612, "\u0120fear": 3613, "bit": 3614, "water": 3615, "\u0120Jesus": 3616, "Some": 3617, "\u0120models": 3618, "\u0120April": 3619, "\u0120asked": 3620, "\u0120Even": 3621, "\u0120Dav": 3622, "\u0120County": 3623, "\u0120tox": 3624, "\u0120instru": 3625, "\u0120maintain": 3626, "\u0120Great": 3627, "\u0120ord": 3628, "\u0120emissions": 3629, "\u0120conflic": 3630, "iable": 3631, "life": 3632, "apter": 3633, "\u0120consequ": 3634, "\u0120followed": 3635, "\u0120organization": 3636, "\u0120genetic": 3637, "\u0120System": 3638, "\u0120constant": 3639, "ros": 3640, "\u0120religious": 3641, "\u0120predict": 3642, "\u0120rich": 3643, "ony": 3644, "\u0120jud": 3645, "\u0120degree": 3646, "\u0120alone": 3647, "\u0120rules": 3648, "book": 3649, "ocks": 3650, "\u0120machine": 3651, "\u0120legal": 3652, "\u0120effort": 3653, "\u0120approx": 3654, "\u0120leave": 3655, "\u0120und": 3656, "\u0120perfect": 3657, "\u0120City": 3658, "\u0120mob": 3659, "ensity": 3660, "\u0120teach": 3661, "\u0120According": 3662, "anish": 3663, "orks": 3664, "ira": 3665, "\u0120ten": 3666, "\u0120powerful": 3667, "IT": 3668, "\u0120measures": 3669, "\u0120acad": 3670, "itch": 3671, "\u0120July": 3672, "\u0120hair": 3673, "\u0120Inc": 3674, "gery": 3675, "\u0120wond": 3676, "\u0120display": 3677, "co": 3678, "rick": 3679, "hemat": 3680, "AC": 3681, "\u0120woman": 3682, "\u0120remember": 3683, "\u0120garden": 3684, "\u0120nothing": 3685, "\u0120commerc": 3686, "\u0120hyp": 3687, "\u0120properties": 3688, "back": 3689, "\u0120atmosp": 3690, "\u0120der": 3691, "iples": 3692, "):": 3693, "aters": 3694, "oration": 3695, "\u0120fair": 3696, "\u0120efficient": 3697, "ords": 3698, "\u0120stories": 3699, "ero": 3700, "\u0120Inst": 3701, "\u0120categ": 3702, "\u0120historical": 3703, "\u0120symbol": 3704, "med": 3705, "ev": 3706, "rael": 3707, "\u0120earlier": 3708, "\u0120Mexic": 3709, "\u0120wrote": 3710, "\u0120placed": 3711, "ios": 3712, "65": 3713, "\u0120Chinese": 3714, "\u0120son": 3715, "\u0120Then": 3716, "lim": 3717, "\u0120neigh": 3718, "\u0120Washington": 3719, "unch": 3720, "\u0120challenges": 3721, "\u0120Red": 3722, "\u0120http": 3723, "\u0120anx": 3724, "\u0120gold": 3725, "\u0120shall": 3726, "\u0120tissue": 3727, "\u0120tou": 3728, "\u0120command": 3729, "eech": 3730, "\u0120coming": 3731, "\u0120differences": 3732, "craft": 3733, "\u0120reduced": 3734, "\u0120sequ": 3735, "\u0120virt": 3736, "\u0120member": 3737, "\u0120alcohol": 3738, ".)": 3739, "ought": 3740, "sec": 3741, "\u0120max": 3742, "ibly": 3743, "aur": 3744, "\u0120innov": 3745, "\u0120William": 3746, "\u0120increases": 3747, "\u0120Cong": 3748, "\u0120road": 3749, "osy": 3750, "bur": 3751, "uit": 3752, "\u0120antib": 3753, "aste": 3754, "\u0120corn": 3755, "\u0120High": 3756, "\u0120piece": 3757, "oe": 3758, "\u0120miss": 3759, "\u0120moving": 3760, "\u0120enter": 3761, "33": 3762, "amic": 3763, "\u0120Mc": 3764, "\u0120assign": 3765, "\u0120patterns": 3766, "Pro": 3767, "\u0120mig": 3768, "\u0120applied": 3769, "\u0120gir": 3770, "\u0120exec": 3771, "\u0120Christian": 3772, "\u0120guide": 3773, "\u0120allowed": 3774, "\u0120offers": 3775, "\u0120fresh": 3776, "\u0120eight": 3777, "\u0120didn": 3778, "ara": 3779, "\u0120identified": 3780, "\u0120cities": 3781, "-S": 3782, "\u0120Vir": 3783, "\u0120huge": 3784, "\u0120ing": 3785, "\u0120mal": 3786, "known": 3787, "ygen": 3788, "\u0120cry": 3789, "\u0120formed": 3790, "\u0120limit": 3791, "cember": 3792, "\u0120choice": 3793, "\u0120poly": 3794, "\u0120version": 3795, "\u0120During": 3796, "\u0120plastic": 3797, "\u0120assist": 3798, "\u0120classroom": 3799, "\u0120components": 3800, "\u0120note": 3801, "can": 3802, "\u0120star": 3803, "isl": 3804, "fl": 3805, "\u0120hon": 3806, "ham": 3807, "\u0120Use": 3808, "\u0120UK": 3809, "fess": 3810, "\u0120blue": 3811, "\u0120box": 3812, "\u0120Develop": 3813, "\u0120dat": 3814, "\u0120root": 3815, "\u0120strugg": 3816, "\u0120picture": 3817, "\u0120DNA": 3818, "\u0120changed": 3819, "\u0120architect": 3820, "\u0120opportunities": 3821, "\u0120explore": 3822, "\u0120thousands": 3823, "airs": 3824, "pped": 3825, "iny": 3826, "\u0120options": 3827, "\u0120forces": 3828, "\u0120majority": 3829, "\u0120+": 3830, "irection": 3831, "\u0120sect": 3832, "\u0120Dis": 3833, "enty": 3834, "\u0120educational": 3835, "\u0120context": 3836, "\u0120collabor": 3837, "ogen": 3838, "\u0120illust": 3839, "\u0120findings": 3840, "\u0120Water": 3841, "rome": 3842, "\u0120king": 3843, "\u0120Sur": 3844, "\u0120functions": 3845, "\u0120Are": 3846, "\u0120pow": 3847, "\u0120consumption": 3848, "\u0120capacity": 3849, "\u0120breast": 3850, "\u0120female": 3851, "mitted": 3852, "\u0120fully": 3853, "\u0120Sim": 3854, "iring": 3855, "\u0120muscle": 3856, "\u00e0\u00a4": 3857, "edia": 3858, "\u0120Australia": 3859, "aled": 3860, "ondon": 3861, "\u0120style": 3862, "\u0120September": 3863, "\u0120East": 3864, "\u0120topic": 3865, "eding": 3866, "\u0120milk": 3867, "\u0120absor": 3868, "-e": 3869, "\u0120acqu": 3870, "related": 3871, "iful": 3872, "\u0120balance": 3873, "\u0120Because": 3874, "\u0120running": 3875, "\u0120effic": 3876, "\u0120price": 3877, "\u0120sch": 3878, "ocol": 3879, "\u0120unit": 3880, "\u0120destro": 3881, "\u0120Also": 3882, "\u0120map": 3883, "\u0120Commun": 3884, "iate": 3885, "\u0120Church": 3886, "\u0120NA": 3887, "\u0120detect": 3888, "\u0120Now": 3889, "\u0120showed": 3890, "rec": 3891, "\u0120worked": 3892, "odes": 3893, "reet": 3894, "\u0120Black": 3895, "aul": 3896, "97": 3897, "\u0120rule": 3898, "ovember": 3899, "\u0120actions": 3900, "\u0120element": 3901, "\u0120Since": 3902, "ingu": 3903, "\u0120worth": 3904, "\u0120disorder": 3905, "\u0120names": 3906, "era": 3907, "ste": 3908, "\u0120insect": 3909, "Ad": 3910, "lin": 3911, "\u0120vision": 3912, "Be": 3913, "\u0120Val": 3914, "cont": 3915, "\u0120relatively": 3916, "\u0120himself": 3917, "que": 3918, "\u0120Govern": 3919, "\u0120glass": 3920, "\u0120factor": 3921, "\u0120task": 3922, "\u0120occup": 3923, "ford": 3924, "\u0120stim": 3925, "\u0120easier": 3926, "\u0120Com": 3927, "\u0120convers": 3928, "\u0120expand": 3929, "\u0120watch": 3930, "\u0120chance": 3931, "\u0120People": 3932, "\u0120bone": 3933, "abilities": 3934, "\u0120technologies": 3935, "\u0120giving": 3936, "\u0120spirit": 3937, "\u0120existing": 3938, "rehens": 3939, "\u0120forward": 3940, "more": 3941, "\u0120:": 3942, "aint": 3943, "\u0120famous": 3944, "\u0120former": 3945, "\u0120celebr": 3946, "aid": 3947, "\u0120January": 3948, "\u0120planning": 3949, "\u0120moment": 3950, "inated": 3951, "\u0120details": 3952, "\u0120presence": 3953, "iences": 3954, "\u0120Israel": 3955, "orage": 3956, "off": 3957, "\u0120explain": 3958, "\u0120decades": 3959, "\u0120emp": 3960, "\u0120San": 3961, "\u0120happen": 3962, "\u0120promot": 3963, "bre": 3964, "\u0120depression": 3965, "\u0120extremely": 3966, "\u0120native": 3967, "\u0120electricity": 3968, "\u0120fert": 3969, "\u0120October": 3970, "\u0120status": 3971, "\u0120items": 3972, "\u0120mo": 3973, "uro": 3974, "\u0120monit": 3975, "\u0120asse": 3976, "hab": 3977, "\u0120Mod": 3978, "\u0120spring": 3979, "\u0120staff": 3980, "\u0120constit": 3981, "atin": 3982, "\u0120compar": 3983, "\u0120Bra": 3984, "\u0120instance": 3985, "\u0120goals": 3986, "wide": 3987, "\u0120construct": 3988, "yd": 3989, "\u0120excess": 3990, "ocr": 3991, "rupt": 3992, "\u0120iron": 3993, "\u0120Feb": 3994, "ulum": 3995, "\u0120reports": 3996, "\u0120belief": 3997, "\u0120perhaps": 3998, "\u0120strategies": 3999, "phas": 4000, "ees": 4001, "\u0120gain": 4002, "encies": 4003, "\u0120pick": 4004, "\u0120wid": 4005, "\u0120mission": 4006, "\u0120distance": 4007, "\u0120river": 4008, "\u0120Each": 4009, "They": 4010, "\u0120survey": 4011, "\u0120save": 4012, "\u0120journal": 4013, "\u0120tooth": 4014, "\u0120experiences": 4015, "ament": 4016, "\u0120medicine": 4017, "\u0120continued": 4018, "rief": 4019, "\u0120Roman": 4020, "\u0120liqu": 4021, "\u0120attract": 4022, "\u0120Trans": 4023, "\u0120plans": 4024, "\u0120contract": 4025, "\u0120util": 4026, "ologist": 4027, "\u0120Environment": 4028, "Un": 4029, "\u0120friend": 4030, "\u0120Pat": 4031, "edom": 4032, "\u0120rat": 4033, "\u0120appears": 4034, "\u0120feature": 4035, "\u0120suggests": 4036, "asks": 4037, "\u0120church": 4038, "eces": 4039, "iant": 4040, "\u0120eventually": 4041, "All": 4042, "\u0120weak": 4043, "\u0120exhib": 4044, "\u0120rot": 4045, "\u0120vo": 4046, "\u0120treated": 4047, "\u0120wrong": 4048, "ternal": 4049, "ifically": 4050, "ux": 4051, "\u0120regions": 4052, "\u0120instruct": 4053, "\u0120vill": 4054, "\u0120temperatures": 4055, "\u0120apply": 4056, "\u0120equal": 4057, "DA": 4058, "\u0120nutrition": 4059, "orge": 4060, "\u0120repe": 4061, "\u0120evolution": 4062, "\u0120structures": 4063, "alt": 4064, "\u0120defined": 4065, "After": 4066, "uild": 4067, "\u0120graph": 4068, "98": 4069, "ube": 4070, "48": 4071, "aign": 4072, "pris": 4073, "\u0120gave": 4074, "\u0120kid": 4075, "men": 4076, "icip": 4077, "\u0120income": 4078, "\u0120generation": 4079, "\u0120Their": 4080, "\u0120Just": 4081, "ses": 4082, "\u0120remove": 4083, "hors": 4084, "house": 4085, "\u0120Fin": 4086, "zz": 4087, "\u0120Sch": 4088, "\u0120board": 4089, "\u0120transfer": 4090, "apers": 4091, ".e": 4092, "\u0120believed": 4093, "\u0120oxygen": 4094, "oma": 4095, "\u0120London": 4096, "\u0120bed": 4097, "\u0120significantly": 4098, "\u0120learned": 4099, "\u0120Pol": 4100, "\u0120direction": 4101, "\u0120resistance": 4102, "\u0120chronic": 4103, "AL": 4104, "\u0120spect": 4105, "iology": 4106, "gypt": 4107, "\u0120qual": 4108, "\u0120heavy": 4109, "\u0120causing": 4110, "\u0120figure": 4111, "\u0120commercial": 4112, "\u0120becoming": 4113, "\u0120tele": 4114, "iding": 4115, "\u0120Union": 4116, "\u0120den": 4117, "\u0120metal": 4118, "\u0120homes": 4119, "\u0120court": 4120, "\u0120dogs": 4121, "\u0120December": 4122, "\u0120philos": 4123, "\u0120House": 4124, "\u0120urban": 4125, "\u0120Germany": 4126, "lege": 4127, "EC": 4128, "\u0120Prot": 4129, "\u0120industrial": 4130, "\u0120peace": 4131, "\u0120office": 4132, "\u0120Association": 4133, "\u0120vary": 4134, "igen": 4135, "\u0120Ro": 4136, "\u0120challenge": 4137, "\u0120mut": 4138, "force": 4139, "ares": 4140, "\u0120email": 4141, "\u0120requirements": 4142, "cious": 4143, "\u00e2\u0122\u013f,": 4144, "ruary": 4145, "\u0120Internet": 4146, "\u0120divid": 4147, "\u0120Coun": 4148, "\u0120disorders": 4149, "-C": 4150, "\u0120highest": 4151, "\u0120Society": 4152, "amb": 4153, "\u0120risks": 4154, "care": 4155, "\u0120novel": 4156, "\u0120cycle": 4157, "\u0120seven": 4158, "\u0120solutions": 4159, "\u0120passed": 4160, "pective": 4161, "-A": 4162, "\u0120inflamm": 4163, "\u0120vitamin": 4164, "\u0120gets": 4165, "\u0120favor": 4166, "\u0120release": 4167, "\u0120Cour": 4168, "According": 4169, "\u0120citizens": 4170, "\u0120resource": 4171, "ographic": 4172, "EM": 4173, "\u0120recommended": 4174, "\u0120organic": 4175, "34": 4176, "urally": 4177, "\u0120Program": 4178, "ST": 4179, "\u0120clinical": 4180, "\u0120organizations": 4181, "\u0120stream": 4182, "\u0120separate": 4183, "\u0120store": 4184, "isation": 4185, "\u0120immediately": 4186, "\u0120approximately": 4187, "\u0120fix": 4188, "\u0120infections": 4189, "\u0120trig": 4190, "37": 4191, "ologists": 4192, "\u0120male": 4193, "\u0120flood": 4194, "\u0120decisions": 4195, "\u0120bound": 4196, "rab": 4197, "\u0120college": 4198, "\u0120conducted": 4199, "\u0120buildings": 4200, "\u0120France": 4201, "Is": 4202, "42": 4203, "\u0120Don": 4204, "\u0120ocean": 4205, "\u0120buy": 4206, "emy": 4207, "\u0120Children": 4208, "38": 4209, "nes": 4210, "\u0120reducing": 4211, "\u0120happens": 4212, "lick": 4213, "\u0120November": 4214, "\u0120bodies": 4215, "\u0120Green": 4216, "\u0120released": 4217, "\u0120horm": 4218, "\u0120Cor": 4219, "bed": 4220, "\u0120slight": 4221, "\u0120changing": 4222, "\u0120pul": 4223, "\u0120notes": 4224, "iance": 4225, "Ph": 4226, "\u0120experts": 4227, "\u0120starting": 4228, "\u0120cand": 4229, "\u0120ves": 4230, "\u0120widely": 4231, "\u0120fields": 4232, "\u0120shap": 4233, "\u0120speech": 4234, "\u0120surgery": 4235, "\u0120layer": 4236, "\u0120dri": 4237, "ky": 4238, "\u0120Cur": 4239, "\u0120bottom": 4240, "\u0120games": 4241, "ida": 4242, "\u0120introduced": 4243, "resp": 4244, "\u0120drive": 4245, "\u0120experiment": 4246, "However": 4247, "char": 4248, "udd": 4249, "\u0120drop": 4250, "ager": 4251, "\u0120math": 4252, "\u0120estimated": 4253, "\u0120injury": 4254, "\u0120initi": 4255, "ken": 4256, "\u0120reality": 4257, "\u0120combination": 4258, "cast": 4259, "\u0120foreign": 4260, "\u0120burn": 4261, "\u0120seeds": 4262, "ingly": 4263, "\u0120connected": 4264, "\u0120Over": 4265, "\u0120carried": 4266, "\u0120involves": 4267, "asion": 4268, "\u0120anxiety": 4269, "\u0120serve": 4270, "\u0120pollution": 4271, "\u0120bank": 4272, "\u0120intellig": 4273, "\u0120click": 4274, "opy": 4275, "\u0120alternative": 4276, "\u0120aspects": 4277, "\u0120Br": 4278, "55": 4279, "\u0120sample": 4280, "iment": 4281, "\u0120partners": 4282, "\u0120Jewish": 4283, "\u0120Ang": 4284, "\u0120setting": 4285, "riculum": 4286, "ructure": 4287, "\u0120dangerous": 4288, "erate": 4289, "change": 4290, "\u0120lung": 4291, "\u0120records": 4292, "\u0120household": 4293, "\u0120presented": 4294, "\u0120Found": 4295, "\u0120frequently": 4296, "uses": 4297, "\u0120agg": 4298, "omic": 4299, "wards": 4300, "...\u010a": 4301, "elines": 4302, "/or": 4303, "\u0120Law": 4304, "\u0120populations": 4305, "\u0120observed": 4306, "\u0120technique": 4307, "\u0120exactly": 4308, "\u0120assum": 4309, "\u0120Plan": 4310, "\u0120UN": 4311, "\u0120statement": 4312, "olid": 4313, "44": 4314, "\u0120Aut": 4315, "ession": 4316, "\u0120ready": 4317, "\u0120degrees": 4318, "\u0120pi": 4319, "\u0120Egypt": 4320, "Here": 4321, "\u0120Let": 4322, "\u0120General": 4323, "\u0120emphas": 4324, "cular": 4325, "\u0120numerous": 4326, "Res": 4327, "96": 4328, "\u0120actual": 4329, "\u0120sexual": 4330, "\u0120College": 4331, "\u0120dyn": 4332, "\u0120literature": 4333, "\u0120film": 4334, "uing": 4335, "\u0120encourage": 4336, "\u0120thr": 4337, "rie": 4338, "\u0120Western": 4339, "-up": 4340, "ald": 4341, "\u0120storage": 4342, "\u0120anyone": 4343, "omas": 4344, "\u0120phen": 4345, "\u0120properly": 4346, "\u0120sand": 4347, "\u0120Journal": 4348, "\u0120Des": 4349, "41": 4350, "ias": 4351, "\u0120Spec": 4352, "atform": 4353, "imens": 4354, "\u0120nuclear": 4355, "\u0120president": 4356, "rows": 4357, "\u00e2\u0122\u013f.": 4358, "\u0120helping": 4359, "\u0120letter": 4360, "\u0120mag": 4361, "\u0120Conf": 4362, "\u0120feeling": 4363, "\u0120tour": 4364, "\u0120thick": 4365, "85": 4366, "works": 4367, "\u0120alg": 4368, "ulf": 4369, "\u0120moved": 4370, "\u0120characteristics": 4371, "tical": 4372, "ressive": 4373, "\u0120hear": 4374, "anging": 4375, "ET": 4376, "\u0120mostly": 4377, "\u0120vul": 4378, "\u0120landsc": 4379, "\u0120assessment": 4380, "ortunately": 4381, "\u0120upd": 4382, "\u0120covered": 4383, "\u0120contrast": 4384, "\u0120please": 4385, "\u0120Net": 4386, "\u0120lived": 4387, "antic": 4388, "\u0120background": 4389, "39": 4390, "unction": 4391, "\u0120replace": 4392, "\u0120radiation": 4393, "\u0120Tex": 4394, "\u0120prefer": 4395, "\u0120Phil": 4396, "\u0120violence": 4397, "\u0120Food": 4398, "\u0120finding": 4399, "\".": 4400, "\u0120ded": 4401, "\u0120vegetables": 4402, "\u0120academic": 4403, "\u0120seed": 4404, "\u0120physic": 4405, "\u0120resulting": 4406, "\u0120professor": 4407, "ping": 4408, "\u0120performed": 4409, "\u0120vessel": 4410, "\u0120Congress": 4411, "atically": 4412, "\u0120option": 4413, "icial": 4414, "\u0120Mary": 4415, "ognitive": 4416, "\u0120trust": 4417, "\u0120Mat": 4418, "order": 4419, "raw": 4420, "\u0120grade": 4421, "\u00c2\u00b0": 4422, "\u0120copy": 4423, "\u0120Museum": 4424, "\u0120wanted": 4425, "\u0120#": 4426, "\u0120Web": 4427, "ndrome": 4428, "Many": 4429, "\u0120Once": 4430, "\u0120connection": 4431, "\u0120manage": 4432, "atural": 4433, "\u0120cris": 4434, "\u0120participants": 4435, "\u0120Mich": 4436, "olved": 4437, "\u0120trou": 4438, "\u0120emotional": 4439, "\u0120profession": 4440, "\u0120ign": 4441, "osystem": 4442, "\u0120sac": 4443, "ample": 4444, "\u0120prepar": 4445, "Our": 4446, "\u0120divers": 4447, "\u0120spot": 4448, "\u0120linked": 4449, "ogle": 4450, "\u0120trend": 4451, "cers": 4452, "bal": 4453, "\u0120tum": 4454, "\u0120lesson": 4455, "\u0120Arch": 4456, "HE": 4457, "\u0120eggs": 4458, "\u0120advanced": 4459, "urance": 4460, "ieties": 4461, "\u0120depending": 4462, "\u0120failure": 4463, "\u0120radio": 4464, "\u0120Public": 4465, "\u0120operations": 4466, "Why": 4467, "onds": 4468, "pping": 4469, "\u0120amounts": 4470, "\u0120relationships": 4471, "ously": 4472, "\u0120engineering": 4473, "\u0120chemicals": 4474, "\u0120desp": 4475, "\u0120meat": 4476, "64": 4477, "PS": 4478, "othes": 4479, "\u0120hearing": 4480, "\u0120core": 4481, "\u0120opin": 4482, "\u0120referred": 4483, "\u0120exposed": 4484, "\u0120sav": 4485, "\u0120Pal": 4486, "\u0120annual": 4487, "\u0120load": 4488, "porary": 4489, "\u0120helped": 4490, "\u0120pal": 4491, "\u0120expert": 4492, "\u0120internal": 4493, "\u0120Ob": 4494, "\u0120comprehens": 4495, "II": 4496, "\u0120authors": 4497, "erences": 4498, "\u0120experienced": 4499, "\u0120policies": 4500, "\u0120message": 4501, "\u0120Japanese": 4502, "\u0120distribution": 4503, "\u0120destroy": 4504, "\u0120upper": 4505, "\u0120reference": 4506, "\u0120leads": 4507, "\u0120classes": 4508, "\u0120sustainable": 4509, "\u0120Che": 4510, "\u0120excell": 4511, "\u0120removed": 4512, "\u0120win": 4513, "\u0120initial": 4514, "oking": 4515, "rant": 4516, "\u0120gene": 4517, "\u0120mer": 4518, "\u0120Ma": 4519, "\u0120legisl": 4520, "\u0120output": 4521, "\u0120Inter": 4522, "\u0120esc": 4523, "\u0120Spanish": 4524, "\u0120February": 4525, "\u0120mathemat": 4526, "\u0120hom": 4527, "\u0120\u00e2\u0122\u00a6": 4528, ".)\u010a": 4529, "\u0120Students": 4530, "enth": 4531, "\u0120incorpor": 4532, "\u0120grass": 4533, "ped": 4534, "\u0120dram": 4535, "\u0120conservation": 4536, "ilit": 4537, "urt": 4538, "\u0120Why": 4539, "\u0120scen": 4540, "clus": 4541, "\u0120elimin": 4542, "\u0120independent": 4543, "\u0120effectively": 4544, "\u0120coal": 4545, "\u0120discussion": 4546, "\u0120gender": 4547, "\u0120jour": 4548, "che": 4549, "\u0120manufacture": 4550, "\u0120Dec": 4551, "\u0120fine": 4552, "erved": 4553, "\u0120campaign": 4554, "iveness": 4555, "\u0120clearly": 4556, "\u0120Work": 4557, "\u0120concepts": 4558, "\u0120Air": 4559, "\u0120comfort": 4560, "tered": 4561, "\u0120beautiful": 4562, "\u0120promote": 4563, "\u0120interested": 4564, "amental": 4565, "\u0120adjust": 4566, "rum": 4567, "place": 4568, "\u0120yellow": 4569, "\u0120calc": 4570, "\u0120ple": 4571, "\u0120solid": 4572, "key": 4573, "\",": 4574, "hetic": 4575, "\u0120volume": 4576, "\u0120die": 4577, "91": 4578, "\u0120pric": 4579, "\u0120truth": 4580, "roph": 4581, "orial": 4582, "\u0120reprodu": 4583, "\u0120pip": 4584, "RE": 4585, "\u0120motor": 4586, "\u0120pages": 4587, "\u0120distinct": 4588, "\u0120atmosphere": 4589, "\u0120discover": 4590, "\u0120Greek": 4591, "\u0120processing": 4592, "-le": 4593, "That": 4594, "\u0120Under": 4595, "\u0120turned": 4596, "\u0120farmers": 4597, ".C": 4598, "OS": 4599, "zing": 4600, "43": 4601, "\u0120vaccine": 4602, "\u0120Therefore": 4603, "\u0120describe": 4604, "\u0120muscles": 4605, "rog": 4606, "ij": 4607, "\u0120fol": 4608, "\u0120doub": 4609, "\u0120presc": 4610, "\u0120creation": 4611, "\u0120Project": 4612, "\u0120highlight": 4613, ");": 4614, "rete": 4615, "\u0120island": 4616, "\u0120minor": 4617, "\u0120awareness": 4618, "AM": 4619, "gment": 4620, "\u0120univers": 4621, "uration": 4622, "\u0120square": 4623, "\u0120NASA": 4624, "\u0120efficiency": 4625, "ishing": 4626, "\u0120looks": 4627, "\u0120James": 4628, "\u0120definition": 4629, "\u0120defic": 4630, "\u0120isol": 4631, "\u0120counter": 4632, "ophy": 4633, "\u0120storm": 4634, "\u0120invent": 4635, "\u0120transform": 4636, "\u0120Profess": 4637, "ocal": 4638, "\u0120input": 4639, "\u0120appe": 4640, "\u0120arm": 4641, "-th": 4642, "Ar": 4643, "igure": 4644, "\u0120nutrients": 4645, "\u0120mel": 4646, "\u0120victim": 4647, "\u0120languages": 4648, "met": 4649, "mal": 4650, "\u0120advantage": 4651, "Sp": 4652, "\u0120concerns": 4653, "\u0120electrical": 4654, "\u0120reaction": 4655, "Sh": 4656, "\u0120mist": 4657, "\u0120killed": 4658, "\u0120hour": 4659, "\u0120datab": 4660, "Im": 4661, "Now": 4662, "\u0120articles": 4663, "\u0120pieces": 4664, "\u0120noted": 4665, "ault": 4666, "92": 4667, "Although": 4668, "umn": 4669, "\u0120David": 4670, "\u0120involve": 4671, "Most": 4672, "\u0120principles": 4673, "\u0120faith": 4674, "\u0120Organ": 4675, "ressed": 4676, "\u0120drinking": 4677, "\u0120diagnosis": 4678, "\u0120Development": 4679, "\u0120unf": 4680, "\u0120recy": 4681, "\u0120Sun": 4682, "\u0120kill": 4683, "\u0120platform": 4684, "\u0120round": 4685, "\u0120digest": 4686, "\u0120Thus": 4687, "\u0120Council": 4688, "\u0120vulner": 4689, "\u0120race": 4690, "\u0120Texas": 4691, "\u0120conflict": 4692, "\u0120clos": 4693, "board": 4694, "\u0120ST": 4695, "\u0120influen": 4696, "\u0120Mount": 4697, "\u0120spent": 4698, "\u0120flowers": 4699, "\u0120synt": 4700, "\u0120relevant": 4701, "\u0120territ": 4702, "\u0120Mexico": 4703, "\u0120battle": 4704, "\u0120improved": 4705, "\u0120contribute": 4706, "\u0120HIV": 4707, "ded": 4708, "\u0120pret": 4709, "\u0120Its": 4710, "ormal": 4711, "\u0120Island": 4712, "\u0120bud": 4713, "\u0120Lord": 4714, "\u0120heard": 4715, "\u0120meeting": 4716, "\u0120Mor": 4717, "\u0120credit": 4718, "-related": 4719, "\u0120consult": 4720, "iverse": 4721, "\u0120Av": 4722, "onic": 4723, "ams": 4724, "\u0120units": 4725, "94": 4726, "rep": 4727, "\u0120begins": 4728, "\u0120regarding": 4729, "\u0120wet": 4730, "acing": 4731, "\u0120song": 4732, "\u0120treatments": 4733, "\u0120meant": 4734, "\u0120southern": 4735, "'ll": 4736, "ception": 4737, "\u0120continues": 4738, "\u0120genes": 4739, "\u0120Asia": 4740, "standing": 4741, "\u0120previously": 4742, "\u0120aid": 4743, "\u0120trib": 4744, "\u0120hospital": 4745, "\u0120foss": 4746, "\u0120Test": 4747, "\u0120freedom": 4748, "\u0120Hel": 4749, "\u0120notice": 4750, "]\u010a": 4751, "rates": 4752, "\u0120prepared": 4753, "ball": 4754, "ags": 4755, "\u0120northern": 4756, "-like": 4757, "\u0120allowing": 4758, "\u0120hit": 4759, "\u0120sem": 4760, "\u0120topics": 4761, "\u0120renew": 4762, "\u0120sort": 4763, "\u0120party": 4764, "\u0120decided": 4765, "\u0120bird": 4766, "\u0120Mars": 4767, "\u0120affects": 4768, "\u0120Rev": 4769, "\u0120park": 4770, "\u0120Press": 4771, "\u0120completed": 4772, "\u0120wealth": 4773, "\u0120owners": 4774, "\u0120volunt": 4775, "\u0120situations": 4776, "rest": 4777, "\u0120mainly": 4778, "\u0120concern": 4779, "tes": 4780, "\u0120hop": 4781, "akers": 4782, "\u0120faster": 4783, "\u0120tasks": 4784, "\u0120kept": 4785, "\u0120Rem": 4786, "\u0120vital": 4787, "bl": 4788, "\u0120IS": 4789, "\u0120aren": 4790, "\u0120motiv": 4791, "\u0120jobs": 4792, "\u0120seek": 4793, "\u0120toxic": 4794, "\u0120bright": 4795, "\u0120Republic": 4796, "ategy": 4797, "\u0120George": 4798, "\u0120spend": 4799, "\u0120Every": 4800, "\u0120diss": 4801, "\u0120determined": 4802, "\u0120Social": 4803, "\u0120focused": 4804, "\u0120Fore": 4805, "93": 4806, "\u0120tips": 4807, "\u0120served": 4808, "\u0120impacts": 4809, "\u0120flex": 4810, "\u0120liquid": 4811, "\u0120belong": 4812, "\u0120procedure": 4813, "iling": 4814, "ta": 4815, "ears": 4816, "\u0120obvious": 4817, "\u0120ship": 4818, "part": 4819, "\u0120strategy": 4820, "\u0120Human": 4821, "tee": 4822, "\u0120signal": 4823, "47": 4824, "inate": 4825, "\u0120conver": 4826, ".D": 4827, "\u0120phase": 4828, "\u0120straight": 4829, "-M": 4830, "\u0120Off": 4831, "ifying": 4832, "alled": 4833, "mark": 4834, "roke": 4835, "\u0120height": 4836, "\u0120circum": 4837, "roup": 4838, "ributed": 4839, "\u0120rul": 4840, "\u0120vot": 4841, "\u0120cere": 4842, "\u0120ther": 4843, "acters": 4844, "\u0120keeping": 4845, "\u0120saying": 4846, "\u0120shared": 4847, "\u0120sounds": 4848, "\u0120confirm": 4849, "\u0120Rel": 4850, "\u0120emergency": 4851, "\u0120crucial": 4852, "riage": 4853, "\u0120cast": 4854, "\u0120Space": 4855, "\u0120practical": 4856, "\u0120ecosystem": 4857, "\u0120operation": 4858, "isher": 4859, "\u0120Service": 4860, "mat": 4861, "\u0120career": 4862, "\u0120fib": 4863, "za": 4864, "\u0120facts": 4865, "ander": 4866, "oxide": 4867, "\u0120mentioned": 4868, "\u0120explains": 4869, "\u0120conv": 4870, "46": 4871, "\u0120ban": 4872, "\u0120AD": 4873, "acific": 4874, "comes": 4875, "\u0120Phys": 4876, "\u0120wonder": 4877, "\u0120La": 4878, "\u0120blog": 4879, "\u0120particles": 4880, "anted": 4881, "\u0120official": 4882, "\u0120Bel": 4883, "\u0120youth": 4884, "\u0120taught": 4885, "road": 4886, "ago": 4887, "\u0120moist": 4888, "\u0120pun": 4889, "\u0120nerv": 4890, "\u0120kinds": 4891, "\u0120waters": 4892, "\u0120Dise": 4893, "\u0120reb": 4894, "\u0120fruits": 4895, "kin": 4896, "\u0120smart": 4897, "\u0120salt": 4898, "\u0120extensive": 4899, "\u0120purposes": 4900, "\u0120ideal": 4901, "oyal": 4902, "upp": 4903, "\u0120recorded": 4904, "\u0120nav": 4905, "\u0120kil": 4906, "OT": 4907, "\u0120dro": 4908, "61": 4909, "From": 4910, "\u0120oral": 4911, "\u0120Tur": 4912, "\u0120surrounding": 4913, "72": 4914, "\u0120Mark": 4915, "eline": 4916, "\u0120advice": 4917, "\u0120shar": 4918, "\u0120religion": 4919, "\u0120Port": 4920, "\u0120master": 4921, "\u0120doll": 4922, "\u0120primarily": 4923, "\u0120west": 4924, "88": 4925, "\u0120coord": 4926, "chers": 4927, "\u0120samples": 4928, "\u0120operating": 4929, "\u0120Mal": 4930, "\u0120vehicle": 4931, "-n": 4932, "\u0120Energy": 4933, "\u0120Di": 4934, "51": 4935, "\u0120showing": 4936, "osite": 4937, "\u0120interpret": 4938, "\u0120haz": 4939, "\u0120lov": 4940, "\u0120phone": 4941, "\u0120liver": 4942, "89": 4943, "\u0120roll": 4944, "\u0120charge": 4945, "\u0120god": 4946, "\u0120reduction": 4947, "otic": 4948, "\u0120centuries": 4949, "\u0120consequences": 4950, "astern": 4951, "och": 4952, "wood": 4953, "Con": 4954, "52": 4955, "\u0120intended": 4956, "\u0120fing": 4957, "\u0120Learning": 4958, "63": 4959, "\u0120combined": 4960, "\u0120excellent": 4961, "\u0120thin": 4962, "ache": 4963, "uted": 4964, "rapy": 4965, "\u0120curriculum": 4966, "\u0120Cath": 4967, "atric": 4968, "espite": 4969, "which": 4970, "\u0120White": 4971, "\u0120gar": 4972, "\u0120familiar": 4973, "\u0120attacks": 4974, "\u0120frequency": 4975, "\u0120conclud": 4976, "\u0120Vol": 4977, "aughter": 4978, "\u0120characters": 4979, "\u0120perman": 4980, "\u0120formation": 4981, "\u0120cert": 4982, "\u0120helpful": 4983, "\u0120format": 4984, "ounced": 4985, "aker": 4986, "rations": 4987, "\u0120brief": 4988, "\u0120lose": 4989, "\u0120technical": 4990, "\u0120onto": 4991, "'ve": 4992, "\u0120Virgin": 4993, "49": 4994, "Pl": 4995, "\u0120latest": 4996, "\u0120stars": 4997, "ometimes": 4998, "\u0120clim": 4999, "\u00e2\u0122\u013f\u010a": 5000, "ii": 5001, "\u0120valu": 5002, "\u0120morning": 5003, "vision": 5004, "\u0120specifically": 5005, "\u0120collected": 5006, "ificial": 5007, "\u0120Class": 5008, "\u0120reached": 5009, "More": 5010, "ya": 5011, "ixt": 5012, "\u0120institutions": 5013, "ishes": 5014, "clusion": 5015, "\u0120paint": 5016, "arrow": 5017, "ek": 5018, "62": 5019, "\u0120Sub": 5020, "\u0120station": 5021, "\u0120uns": 5022, "ails": 5023, "roid": 5024, "\u0120fluid": 5025, "\u0120Medicine": 5026, "\u0120Bas": 5027, "\u0120potentially": 5028, "\u0120vast": 5029, "86": 5030, "\u0120Rober": 5031, "\u0120tested": 5032, "\u0120letters": 5033, "\u0120crops": 5034, "\u0120Miss": 5035, "\u0120sector": 5036, "going": 5037, "rastructure": 5038, "\u0120astron": 5039, "\u0120accurate": 5040, "verty": 5041, "-B": 5042, "rans": 5043, "\u0120Britain": 5044, "\u0120links": 5045, "\u0120manner": 5046, "\u0120refers": 5047, "\u0120supported": 5048, "\u0120mort": 5049, "\u0120poverty": 5050, "\u0120snow": 5051, "AD": 5052, "\u0120internet": 5053, "\u0120expression": 5054, "oughly": 5055, "\u0120medications": 5056, "\u0120certainly": 5057, "\u0120hyper": 5058, "CC": 5059, "\u0120detailed": 5060, "itz": 5061, "\u0120habitat": 5062, "\u0120largely": 5063, "\u0120girls": 5064, "\u0120revolution": 5065, "\u0120deaths": 5066, "\u0120grown": 5067, "\u0120pregnancy": 5068, "\u0120sche": 5069, "\u0120Medical": 5070, "\u0120typical": 5071, "nic": 5072, "oo": 5073, "ipped": 5074, "\u0120indicate": 5075, "\u0120director": 5076, "\u0120resist": 5077, "\u0120stone": 5078, "\u0120bill": 5079, "\u0120playing": 5080, "\u0120monitoring": 5081, "\u0120ju": 5082, "\u0120advance": 5083, "\u0120Civil": 5084, "\u0120finally": 5085, "\u0120secret": 5086, "\u0120periods": 5087, "\u0120phenomen": 5088, "\u0120inflammation": 5089, "\u0120Latin": 5090, "ancing": 5091, "\u0120Government": 5092, "\u0120Old": 5093, "stitution": 5094, "othing": 5095, "\u0120appoint": 5096, "\u0120Flor": 5097, "\u0120offered": 5098, "\u0120lessons": 5099, "\u0120Cle": 5100, "\u0120Today": 5101, "\u0120nor": 5102, "\u0120wel": 5103, "unk": 5104, "vis": 5105, "\u0120surpris": 5106, "\u0120flat": 5107, "\u0120lic": 5108, "aj": 5109, "igenous": 5110, "\u0120Paul": 5111, "\u0120nit": 5112, "ado": 5113, "with": 5114, "\u0120double": 5115, "\u0120Dem": 5116, "\u0120Technology": 5117, "\u0120Make": 5118, "\u0120hundreds": 5119, "\u0120Hen": 5120, "do": 5121, "54": 5122, "53": 5123, "eters": 5124, "ria": 5125, "\u0120roots": 5126, "\u0120harvest": 5127, "alle": 5128, "\u0120metab": 5129, "\u0120Bay": 5130, "\u0120subjects": 5131, "\u0120quar": 5132, "\u0120See": 5133, "rier": 5134, "\u0120proposed": 5135, "New": 5136, "\u0120stem": 5137, "\u0120susp": 5138, "\u0120dental": 5139, "\u0120fort": 5140, "\u0120thoughts": 5141, "\u0120send": 5142, "\u0120whom": 5143, "\u0120identity": 5144, "anges": 5145, "\u0120\u00e2": 5146, "\u0120slightly": 5147, "osa": 5148, "\u0120leader": 5149, "\u0120cognitive": 5150, "\u0120increasingly": 5151, "\u0120agricultural": 5152, "\u0120diam": 5153, "76": 5154, "\u0120bow": 5155, "\u0120crisis": 5156, "\u0120despite": 5157, "Ab": 5158, "\u0120files": 5159, "\u0120component": 5160, "\u0120Foundation": 5161, "\u0120Central": 5162, "\u0120proteins": 5163, "ework": 5164, "ossible": 5165, "aks": 5166, "\u0120boost": 5167, "\u0120infected": 5168, "\u0120east": 5169, "\u0120voice": 5170, "iced": 5171, "\u0120depends": 5172, "umin": 5173, "tion": 5174, "itage": 5175, "56": 5176, "\u0120introduction": 5177, "\u0120responsibility": 5178, "\u0120kn": 5179, "\u0120feelings": 5180, "\u0120wear": 5181, "\u0120studied": 5182, "\u0120satell": 5183, "\u0120Acad": 5184, "\u0120Lou": 5185, "\u0120motion": 5186, "name": 5187, "\u0120perspective": 5188, "\u0120inches": 5189, "active": 5190, "\u0120Data": 5191, "\u0120Using": 5192, "la": 5193, "\u0120abuse": 5194, "66": 5195, "AP": 5196, "\u0120Direct": 5197, "RO": 5198, "ras": 5199, "well": 5200, "\u0120regularly": 5201, "\u0120colors": 5202, "\u0120measured": 5203, "enses": 5204, "\u0120Atl": 5205, "\u0120biological": 5206, "\u0120Google": 5207, "\u0120Dist": 5208, "\u0120instruction": 5209, "\u0120settle": 5210, "\u0120raised": 5211, "\u0120forced": 5212, "\u0120deliver": 5213, "\u0120News": 5214, "\u0120goods": 5215, "\u0120grand": 5216, "\u0120explained": 5217, "\u0120consists": 5218, "gal": 5219, "rence": 5220, "eria": 5221, "inn": 5222, "\u0120vent": 5223, "\u0120pig": 5224, "\u0120walls": 5225, "\u0120facilities": 5226, "\u0120sus": 5227, "\u0120ingred": 5228, "\u0120allerg": 5229, "\u0120occurred": 5230, "\u0120ages": 5231, "68": 5232, "inding": 5233, "Do": 5234, "\u0120Jews": 5235, "\u0120played": 5236, "\u0120driving": 5237, "\u0120businesses": 5238, "-sp": 5239, "inent": 5240, "-re": 5241, "\u0120pros": 5242, "\u0120adding": 5243, "\u0120residents": 5244, "\u0120cardi": 5245, "pen": 5246, "berg": 5247, "celer": 5248, "\u0120mobile": 5249, "CO": 5250, "rich": 5251, "\u0120protected": 5252, "EL": 5253, "87": 5254, "\u0120nations": 5255, "\u0120brother": 5256, "resents": 5257, "\u0120Rich": 5258, "\u0120Def": 5259, "nel": 5260, "\u0120lifest": 5261, "\u0120Jer": 5262, "uls": 5263, "athy": 5264, "bing": 5265, "\u0120spl": 5266, "\u0120maximum": 5267, "\u0120visible": 5268, "\u0120Je": 5269, "\u0120Ber": 5270, "istan": 5271, "\u0120external": 5272, "cling": 5273, "oper": 5274, "\u0120investment": 5275, "\u0120fundamental": 5276, "\u0120Pacific": 5277, "\u0120naturally": 5278, "\u0120greatest": 5279, "\u0120pump": 5280, "\u0120sufficient": 5281, "\u0120km": 5282, "\u0120felt": 5283, "\u0120syndrome": 5284, "\u0120divided": 5285, "\u0120healthcare": 5286, "\u0120Ser": 5287, "\u0120sen": 5288, "\u0120train": 5289, "iated": 5290, "\u0120corresp": 5291, "ague": 5292, "osen": 5293, "icks": 5294, "olute": 5295, "67": 5296, "No": 5297, "ompl": 5298, "lers": 5299, "\u0120looked": 5300, "\u0120happened": 5301, "des": 5302, "\u0120Court": 5303, "\u0120extent": 5304, "\u0120valuable": 5305, "\u0120otherwise": 5306, "\u0120Hol": 5307, "\u0120Ir": 5308, "\u0120Both": 5309, "umber": 5310, "Another": 5311, "\u0120millions": 5312, "\u0120purs": 5313, "\u0120Lake": 5314, "\u00e2\u0122\u013bm": 5315, "\u0120comment": 5316, "\u0120Mac": 5317, "\u0120suffering": 5318, "Cl": 5319, "\u0120western": 5320, "\u0120decrease": 5321, "\u0120syn": 5322, "\u0120Mart": 5323, "\u0120depth": 5324, "\u0120lik": 5325, "\u0120prices": 5326, "\u0120wire": 5327, "esity": 5328, "olars": 5329, "\u0120stret": 5330, "71": 5331, "igation": 5332, "81": 5333, "ascular": 5334, "\u0120controlled": 5335, "\u0120expensive": 5336, "-D": 5337, "\u0120rapidly": 5338, "ventional": 5339, "\u0120pil": 5340, "\u0120Sal": 5341, "teries": 5342, "\u0120Elect": 5343, "\u0120discovery": 5344, "\u0120push": 5345, "\u0120governments": 5346, "\u0120floor": 5347, "what": 5348, "\u0120Sen": 5349, "\u0120instrument": 5350, "57": 5351, "\u0120enhance": 5352, "\u0120shel": 5353, "\u0120Wind": 5354, "\u0120rural": 5355, "84": 5356, "\u0120Ben": 5357, "\u0120continuous": 5358, "ooth": 5359, "\u0120explan": 5360, "\u0120brown": 5361, "\u0120suffer": 5362, "\u0120immig": 5363, "RI": 5364, "\u0120represents": 5365, "\u0120elev": 5366, "Te": 5367, "rolog": 5368, "\u0120bones": 5369, "anch": 5370, "ye": 5371, "isp": 5372, "\u0120neut": 5373, "\u0120wildlife": 5374, "mp": 5375, "\u0120computers": 5376, "58": 5377, "\u0120Que": 5378, "\u0120outcomes": 5379, "\u0120Engine": 5380, "\u0120containing": 5381, "\u0120laun": 5382, "\u0120closely": 5383, "\u0120couple": 5384, "ensus": 5385, "fall": 5386, "\u0120infrastructure": 5387, "\u0120Out": 5388, "tenance": 5389, "\u0120dial": 5390, "\u0120Isl": 5391, "\u0120fertil": 5392, "\u0120remained": 5393, "\u0120talking": 5394, "\u0120antibiot": 5395, "\u0120sick": 5396, "VID": 5397, "US": 5398, "\u0120Sam": 5399, "\u0120Franc": 5400, "\u0120immun": 5401, "\u0120Thomas": 5402, "\u0120employees": 5403, "olester": 5404, "77": 5405, "\u0120Stand": 5406, "\u0120Instead": 5407, "omach": 5408, "82": 5409, "\u0120od": 5410, "Dr": 5411, "ulin": 5412, "\u0120rub": 5413, "BC": 5414, "itness": 5415, "\u0120Met": 5416, "\u0120behaviour": 5417, "leg": 5418, "\u0120worldwide": 5419, "utive": 5420, "\u0120Arab": 5421, "iest": 5422, "van": 5423, "\u0120manufacturing": 5424, "\u0120existence": 5425, "\u0120officials": 5426, "\u0120recognized": 5427, "\u0120moon": 5428, "\u0120appearance": 5429, "\u0120harmful": 5430, "\u0120recognize": 5431, "\u0120suggested": 5432, "inations": 5433, "\u0120raise": 5434, "\u0120simpl": 5435, "hips": 5436, "\u0120Second": 5437, "anguage": 5438, "ffee": 5439, "\u0120medication": 5440, "Us": 5441, "\u0120ble": 5442, "\u0120recovery": 5443, "\u0120fif": 5444, "\u0120Bi": 5445, "\u0120follows": 5446, "\u0120BC": 5447, "\u0120hunt": 5448, "\u0120creative": 5449, "\u0120approaches": 5450, "\u0120disapp": 5451, "\u0120horse": 5452, "\u0120Further": 5453, "\u0120steel": 5454, "73": 5455, "\u0120title": 5456, "\u0120rail": 5457, "\u0120lib": 5458, "\u0120prevention": 5459, "\u0120injuries": 5460, "\u0120medium": 5461, "\u0120sed": 5462, "\u0120fr": 5463, "stood": 5464, "olesterol": 5465, "\u0120prepare": 5466, "agers": 5467, "\u0120fle": 5468, "\u0120Mass": 5469, "\u0120authority": 5470, "rian": 5471, "\u0120Ret": 5472, "\u0120cars": 5473, "\u0120concerned": 5474, "ville": 5475, "\u0120touch": 5476, "\u0120chann": 5477, "\u0120CD": 5478, "oul": 5479, "\u0120leaving": 5480, "\u0120stock": 5481, "\u0120vehicles": 5482, "\u0120stick": 5483, "roc": 5484, "\u0120massive": 5485, "\u0120Treat": 5486, "mas": 5487, "59": 5488, "\u0120extract": 5489, "\u0120starts": 5490, "\u0120minimum": 5491, "\u0120agriculture": 5492, "\u0120secure": 5493, "\u0120Two": 5494, "\u0120request": 5495, "\u0120intake": 5496, "inant": 5497, "\u0120Sea": 5498, "\u0120Bible": 5499, "\u0120sides": 5500, "78": 5501, "anes": 5502, "osc": 5503, "ari": 5504, "\u0120sensitive": 5505, "\u0120Life": 5506, "\u0120band": 5507, "\u0120procedures": 5508, "During": 5509, "\u0120sports": 5510, "\u0120Information": 5511, "-old": 5512, "\u0120nan": 5513, "asive": 5514, "\u0120normally": 5515, "\u0120regul": 5516, "\u0120firm": 5517, "\u0120tiny": 5518, "\u0120Saf": 5519, "\u0120accompl": 5520, "\u0120landscape": 5521, "\u0120warming": 5522, "ION": 5523, "\u0120substance": 5524, "\u0120Middle": 5525, "zy": 5526, "erals": 5527, "\u0120sets": 5528, "\u0120doctors": 5529, "\u0120Book": 5530, "cules": 5531, "ND": 5532, "\u0120rein": 5533, "74": 5534, "abric": 5535, "\u0120portion": 5536, "\u0120improving": 5537, "\u0120Carol": 5538, "ctic": 5539, "\u0120diversity": 5540, "\u0120interview": 5541, "ndom": 5542, "west": 5543, "ario": 5544, "obe": 5545, "orith": 5546, "\u0120gall": 5547, "Ind": 5548, "\u0120generate": 5549, "\u0120Commission": 5550, "\u0120traffic": 5551, "\u0120funding": 5552, "79": 5553, "\u0120Wild": 5554, "\u0120pictures": 5555, "\u0120Fam": 5556, "agues": 5557, "asure": 5558, "\u0120concentration": 5559, "\u0120tun": 5560, "\u0120stages": 5561, "\u0120Control": 5562, "\u0120phr": 5563, "\u0120substant": 5564, "\u0120routine": 5565, "\u0120Women": 5566, "\u0120Another": 5567, "\u0120selected": 5568, "83": 5569, "ava": 5570, "ael": 5571, "iled": 5572, "\u0120\u00c3": 5573, "\u0120diverse": 5574, "rid": 5575, "\u0120download": 5576, "\u0120documents": 5577, "\u0120Fre": 5578, "\u0120Mil": 5579, "\u0120fill": 5580, "\u0120producing": 5581, "\u0120movements": 5582, "\u0120valid": 5583, "\u0120pretty": 5584, "ibl": 5585, "\u0120worse": 5586, "\u0120advoc": 5587, "cest": 5588, "\u0120wife": 5589, "ING": 5590, "\u0120readers": 5591, "\u0120tried": 5592, "\u0120Kore": 5593, "\u0120leaf": 5594, "atever": 5595, "MS": 5596, "TS": 5597, "\u0120domestic": 5598, "\u0120Sat": 5599, "\u0120label": 5600, "\u0120satis": 5601, "\u0120Environmental": 5602, "faces": 5603, "\u0120dust": 5604, "\u0120views": 5605, "\u0120solve": 5606, "\u0120Mr": 5607, "\u0120chain": 5608, "\u0120Florida": 5609, "\u0120nurs": 5610, "\u0120answers": 5611, "time": 5612, "\u0120library": 5613, "\u0120mamm": 5614, "vironments": 5615, "\u0120Like": 5616, "\u0120describes": 5617, "\u0120subsequ": 5618, "\u0120trial": 5619, "\u0120san": 5620, "\u0120argument": 5621, "\u0120minim": 5622, "olve": 5623, "HO": 5624, "\u0120chart": 5625, "\u0120sin": 5626, "\u0120interests": 5627, "\u0120professionals": 5628, "\u0120Land": 5629, "\u0120army": 5630, "Other": 5631, "\u0120cloud": 5632, "\u0120era": 5633, "\u0120survive": 5634, "\u0120stored": 5635, "\u0120forests": 5636, "69": 5637, "\u0120plays": 5638, "\u0120choices": 5639, "\u00c3\u00a1": 5640, "\u0120Ev": 5641, "ota": 5642, "\u0120networks": 5643, "\u0120database": 5644, "\u0120apart": 5645, "\u0120Nor": 5646, "\u0120creates": 5647, "\u0120comprehensive": 5648, "\u0120Get": 5649, "\u0120guidelines": 5650, "\u0120capable": 5651, "ropical": 5652, "-day": 5653, "\u0120proport": 5654, "\u0120battery": 5655, "Read": 5656, "\u0120intelligence": 5657, "\u0120lots": 5658, "ditionally": 5659, "\u0120studying": 5660, "\u0120Professor": 5661, "\u0120du": 5662, "burg": 5663, "stream": 5664, "\u0120apparent": 5665, "dden": 5666, "\u0120beneficial": 5667, "\u0120courses": 5668, "\u0120Army": 5669, "\u0120museum": 5670, "eck": 5671, "riting": 5672, "-sh": 5673, "acts": 5674, "lements": 5675, "raction": 5676, "\u0120returned": 5677, "\u0120Muslim": 5678, "ums": 5679, "\u0120recip": 5680, "\u0120Bur": 5681, "\u0120originally": 5682, "\u0120Up": 5683, "\u0120flight": 5684, "\u0120marine": 5685, "\u0120inject": 5686, "\u0120unlike": 5687, "oto": 5688, "\u0120Ref": 5689, "\u0120aqu": 5690, "ypes": 5691, "\u0120wave": 5692, "\u0120prem": 5693, "\u0120suitable": 5694, "earchers": 5695, "hi": 5696, "\u0120catch": 5697, "\u0120appeared": 5698, "comp": 5699, "lar": 5700, "\u0120tow": 5701, "\u0120listed": 5702, "\u0120decline": 5703, "\u0120sweet": 5704, "\u0120paid": 5705, "\u0120Russia": 5706, "oral": 5707, "\u0120alt": 5708, "\u0120gal": 5709, "\u0120window": 5710, "\u0120gather": 5711, "\u0120weap": 5712, "\u0120survival": 5713, "exp": 5714, "-se": 5715, "aser": 5716, "\u0120childhood": 5717, "\u0120precise": 5718, "\u0120Mont": 5719, "\u0120stomach": 5720, "\u0120speaking": 5721, "\u0120distingu": 5722, "\u0120Library": 5723, "\u0120sky": 5724, "imer": 5725, "\u0120calls": 5726, "\u00e2\u0122\u013eThe": 5727, "\u0120narrow": 5728, "\u0120*": 5729, "\u0120myth": 5730, "\u0120engage": 5731, "\u0120waves": 5732, "\u0120Disc": 5733, "\u0120Virginia": 5734, "\u0120incl": 5735, "\u0120Scient": 5736, "\u0120AI": 5737, "\u0120trad": 5738, "Sc": 5739, "\u0120mit": 5740, "\u0120sudden": 5741, "\u0120random": 5742, "uilding": 5743, "\u0120narr": 5744, "\u0120kit": 5745, "\u0120journey": 5746, "\u0120accomp": 5747, "\u0120justice": 5748, "\u0120Micro": 5749, "\u0120Power": 5750, "\u0120tail": 5751, "asp": 5752, "rants": 5753, "CS": 5754, "\u0120chapter": 5755, "olf": 5756, "\u0120experiments": 5757, "\u0120sod": 5758, "itors": 5759, "\u0120Know": 5760, "\u0120secondary": 5761, "\u0120remote": 5762, "field": 5763, "\u0120adequ": 5764, "\u0120decade": 5765, "\u0120discussed": 5766, "\u0120electronic": 5767, "\u0120Supp": 5768, "hma": 5769, "DF": 5770, "ibilities": 5771, "\u0120twice": 5772, "\u0120mountain": 5773, "\u0120contem": 5774, "\u0120poet": 5775, "\u0120facilit": 5776, "\u0120colour": 5777, "\u0120dent": 5778, "\u0120lifestyle": 5779, "\u0120Expl": 5780, "merican": 5781, "Stud": 5782, "\u0120insects": 5783, "\u0120assemb": 5784, "\u0120fossil": 5785, "\u0120corpor": 5786, "\u0120Tem": 5787, "ona": 5788, "-time": 5789, "\u0120dream": 5790, "\u0120neighb": 5791, "othe": 5792, "\u0120claims": 5793, "\u0120Well": 5794, "idden": 5795, "\u0120environments": 5796, "\u0120microb": 5797, "\u0120leadership": 5798, "\u0120figures": 5799, "\u0120Russian": 5800, "\u0120police": 5801, "\u0120breathing": 5802, "\u0120budget": 5803, "\u0120Robert": 5804, "\u0120consid": 5805, "gl": 5806, "rus": 5807, "band": 5808, "\u0120closed": 5809, "\u0120Ste": 5810, "-sc": 5811, "\u0120tal": 5812, "osal": 5813, "\u0120Post": 5814, "\u0120knew": 5815, "\u0120possibly": 5816, "\u0120exchange": 5817, "\u0120produces": 5818, "\u0120pull": 5819, "\u0120traum": 5820, "\u0120mere": 5821, "\u0120obtained": 5822, "\u0120circumst": 5823, "normal": 5824, "\u0120transition": 5825, "\u0120fiber": 5826, "\u0120biggest": 5827, "\u0120About": 5828, "\u0120tells": 5829, "tage": 5830, "inder": 5831, "\u0120molecules": 5832, "\u0120Management": 5833, "\u0120afford": 5834, "\u0120flav": 5835, "\u0120Disease": 5836, "\u0120impossible": 5837, "\u0120tro": 5838, "\u0120skill": 5839, "ifies": 5840, "\u0120Mem": 5841, "\u0120revealed": 5842, "\u0120edge": 5843, "\u0120entirely": 5844, "that": 5845, "\u0120formal": 5846, "\u0120happy": 5847, "\u0120Bet": 5848, "\u0120pray": 5849, "mary": 5850, "\u0120consumers": 5851, "\u0120principle": 5852, "\u0120pref": 5853, "\u0120slowly": 5854, "\u0120soldiers": 5855, "\u0120acceler": 5856, "\u0120Cam": 5857, "\u0120enable": 5858, "\u0120index": 5859, "\u0120plate": 5860, "eer": 5861, "\u0120Emp": 5862, "\u0120Jud": 5863, "\u0120wants": 5864, "\u0120Catholic": 5865, "\u0120wors": 5866, "\u0120param": 5867, "\u0120Sum": 5868, "racy": 5869, "\u0120chief": 5870, "\u0120cholesterol": 5871, "\u0120emotions": 5872, "\u0120Del": 5873, "/s": 5874, "\u0120aer": 5875, "abul": 5876, "\u0120calcium": 5877, "inating": 5878, "\u0120supplement": 5879, "ato": 5880, "\u0120Nav": 5881, "\u0120Ham": 5882, "uke": 5883, "\u0120apprec": 5884, "\u0120algorith": 5885, "\u0120seeing": 5886, "\u0120reform": 5887, "\u0120maintenance": 5888, "\u0120respir": 5889, "\u0120walking": 5890, "ester": 5891, "\u0120toler": 5892, "Gen": 5893, "\u0120successfully": 5894, "\u0120monitor": 5895, "\u0120papers": 5896, "\u0120absolute": 5897, "My": 5898, "Since": 5899, "\u0120accounts": 5900, "\u0120coffee": 5901, "ellect": 5902, "hemical": 5903, "\u0120universe": 5904, "\u0120generated": 5905, "\u0120Inf": 5906, "\u0120Econom": 5907, "alse": 5908, "\u0120Labor": 5909, "\u0120https": 5910, "\u0120decide": 5911, "\u0120Nature": 5912, "\u0120pure": 5913, "rors": 5914, "\u0120PC": 5915, "\u0120district": 5916, "\u0120achieved": 5917, "\u0120Through": 5918, "irus": 5919, "\u0120conscious": 5920, "\u00c4\u0123": 5921, "\u0120fasc": 5922, "\u0120Common": 5923, "\u0120nerve": 5924, "\u0120Jose": 5925, "\u0120raw": 5926, "lets": 5927, "\u0120locations": 5928, "down": 5929, "prise": 5930, "\u0120aw": 5931, "\u0120filled": 5932, "-be": 5933, "\u0120fly": 5934, "\u0120gun": 5935, "attle": 5936, "cel": 5937, "\u0120...": 5938, "\u0120acids": 5939, "\u0120dut": 5940, "\u0120handle": 5941, "\u0120grav": 5942, "\u0120Budd": 5943, "\u0120signals": 5944, "\u0120Henry": 5945, "\u0120candid": 5946, "ston": 5947, "Not": 5948, "\u0120sentence": 5949, "\u0120habits": 5950, "\u0120foundation": 5951, "organ": 5952, "\u0120Any": 5953, "\u0120Louis": 5954, "\u0120ancest": 5955, "\u0120Studies": 5956, "-cent": 5957, "\u0120houses": 5958, "\u0120stated": 5959, "-P": 5960, "\u0120shell": 5961, "\u0120sell": 5962, "\u0120Care": 5963, "oric": 5964, "\u0120vessels": 5965, "\u0120correspond": 5966, "alysis": 5967, "rem": 5968, "\u0120prison": 5969, "\u0120Columb": 5970, "inet": 5971, "\u0120regional": 5972, "\u0120broken": 5973, "ups": 5974, "\u0120cart": 5975, "\u0120af": 5976, "\u0120cultiv": 5977, "\u0120adopted": 5978, "\u0120discrim": 5979, "ivalent": 5980, "\u0120mac": 5981, "\u0120COVID": 5982, "using": 5983, "\u0120voc": 5984, "\u0120optim": 5985, "rag": 5986, "\u0120machines": 5987, "\u0120opened": 5988, "\u0120mild": 5989, "\u0120abund": 5990, "oviet": 5991, "\u0120smoking": 5992, "ada": 5993, "\u0120village": 5994, "\u0120>": 5995, "\u0120persons": 5996, "orter": 5997, "eper": 5998, "\u0120selection": 5999, "\u0120acts": 6000, "\u0120communicate": 6001, "\u0120spiritual": 6002, "uzz": 6003, "\u0120understood": 6004, "\u0120audience": 6005, "\u0120reader": 6006, "\u0120Smith": 6007, "ht": 6008, "\u0120colleagues": 6009, "\u0120cutting": 6010, "\u0120stimul": 6011, "\u0120truly": 6012, "\u0120Rights": 6013, "\u0120programming": 6014, "\u00e2\u0122\u013bd": 6015, "icians": 6016, "pat": 6017, "\u0120Those": 6018, "Re": 6019, "point": 6020, "\u0120aircraft": 6021, "\u0120Sl": 6022, "anged": 6023, "\u0120fewer": 6024, "flow": 6025, "\u0120bio": 6026, "\u0120Such": 6027, "\"\u010a": 6028, "\u0120circuit": 6029, "\u0120flo": 6030, "\u0120dedicated": 6031, "\u0120unknown": 6032, "\u0120restrict": 6033, "izer": 6034, "oster": 6035, "\u0120opening": 6036, "orrow": 6037, "\u0120Design": 6038, "\u0120discipl": 6039, "\u0120dioxide": 6040, "\u0120neuro": 6041, "\u0120fabric": 6042, "\u0120Charles": 6043, "\u0120diagnosed": 6044, "gans": 6045, "azing": 6046, "alian": 6047, "\u0120possibility": 6048, "ashion": 6049, "icit": 6050, "\u0120door": 6051, "zen": 6052, "\u0120cats": 6053, "\u0120Good": 6054, "\u0120struggle": 6055, "\u0120transmission": 6056, "En": 6057, "inking": 6058, "\u0120repeated": 6059, "\u0120opinion": 6060, "\u0120agencies": 6061, "\u0120permanent": 6062, "\u0120thor": 6063, "\u0120Ter": 6064, "\u0120din": 6065, "\u0120tea": 6066, "\u0120electron": 6067, "\u0120obesity": 6068, "osph": 6069, "\u0120pup": 6070, "\u0120amb": 6071, "\u0120depos": 6072, "\u0120density": 6073, "fortunately": 6074, "\u0120Ap": 6075, "\u0120recon": 6076, "\u0120roof": 6077, "ocratic": 6078, "\u0120closer": 6079, "\u0120laboratory": 6080, "\u0120.\u010a": 6081, "\u0120carefully": 6082, "\u0120arms": 6083, "\u0120Ken": 6084, "\u0120outl": 6085, "-the": 6086, "\u0120vulnerable": 6087, "\u0120younger": 6088, "\u0120accepted": 6089, "-of": 6090, "\u0120Mo": 6091, "\u0120Lab": 6092, "\u0120parties": 6093, "ivery": 6094, "\u0120composition": 6095, "\u0120ax": 6096, "mic": 6097, "\u0120marriage": 6098, "bert": 6099, "\u0120magnetic": 6100, "gent": 6101, "\u0120unless": 6102, "\u0120remaining": 6103, "\u0120greenhouse": 6104, "\u0120Company": 6105, "\u0120cultures": 6106, "\u0120Ocean": 6107, "CT": 6108, "add": 6109, "\u0120contamin": 6110, "\u0120suc": 6111, "\u0120difficulty": 6112, "\u0120teen": 6113, "\u0120framework": 6114, "ogue": 6115, "LE": 6116, "\u0120Prov": 6117, "\u0120brand": 6118, "ka": 6119, "\u0120possess": 6120, "\u0120assistance": 6121, "erent": 6122, "\u0120sharing": 6123, "ny": 6124, "reed": 6125, "Can": 6126, "\u0120ultimately": 6127, "\u0120managed": 6128, "\u0120concrete": 6129, "\u0120extended": 6130, "\u0120hydrogen": 6131, "\u0120listen": 6132, "gra": 6133, "\u0120neck": 6134, "cript": 6135, "ritis": 6136, "Lear": 6137, "\u0120moral": 6138, "urd": 6139, "struct": 6140, "ipping": 6141, "\u0120drawing": 6142, "net": 6143, "luding": 6144, "\u0120obl": 6145, "\u0120artificial": 6146, "\u0120camera": 6147, "ribe": 6148, "\u0120scholars": 6149, "ansion": 6150, "\u0120legs": 6151, "\u0120greatly": 6152, "\u0120opposite": 6153, "\u0120Canadian": 6154, "Pe": 6155, "\u0120conventional": 6156, "\u0120ath": 6157, "\u0120gluc": 6158, "\u0120sight": 6159, "\u0120Group": 6160, "De": 6161, "-free": 6162, "\u0120Haw": 6163, "\u0120Fe": 6164, "\u0120lands": 6165, "\u0120Federal": 6166, "\u0120Office": 6167, "\u0120obtain": 6168, "\u0120unus": 6169, "\u0120carb": 6170, "\u0120noise": 6171, "\u0120unp": 6172, "ictionary": 6173, "aria": 6174, "\u0120Sk": 6175, "arant": 6176, "\u0120bear": 6177, "\u0120university": 6178, "\u0120relax": 6179, "\u0120tall": 6180, "\u0120purchase": 6181, "\u0120taste": 6182, "\u0120Nations": 6183, "\u0120fever": 6184, "\u0120behaviors": 6185, "\u0120photograph": 6186, "\u0120Australian": 6187, "UR": 6188, ".\u00e2\u0122\u013b": 6189, "\u0120error": 6190, "iform": 6191, "sis": 6192, "\u0120<": 6193, "\u0120Att": 6194, "\u0120nine": 6195, "rating": 6196, "\u0120Alex": 6197, "\u0120Soviet": 6198, "\u0120feeding": 6199, "\u0120fell": 6200, "\u0120pron": 6201, "\u0120supporting": 6202, "\u0120Bro": 6203, "\u0120supports": 6204, "under": 6205, "Your": 6206, "\u0120stroke": 6207, "\u0120row": 6208, "then": 6209, "\u0120compounds": 6210, "\u0120architecture": 6211, "aped": 6212, "ctive": 6213, "\u0120Ess": 6214, "\u0120Id": 6215, "\u0120fract": 6216, "\u0120indicates": 6217, "\u0120shift": 6218, "\u0120derived": 6219, "\u0120server": 6220, "\u0120Keep": 6221, "umes": 6222, "\u0120imper": 6223, "-F": 6224, "ait": 6225, "ribed": 6226, "word": 6227, "\u0120administration": 6228, "\u0120debate": 6229, "\u0120mixed": 6230, "\u0120Southern": 6231, "\u0120Global": 6232, "\u0120\u00e2\u0122\u00a2": 6233, "\u0120hero": 6234, "\u0120turns": 6235, "\u0120writer": 6236, "\u0120mechanism": 6237, "\u0120regulations": 6238, "\u0120inner": 6239, "\u0120stands": 6240, "\u0120underlying": 6241, "\u0120consistent": 6242, "\u0120smoke": 6243, "throp": 6244, "\u0120Vict": 6245, "\u0120Paris": 6246, "\u00c3\u0143": 6247, "\u0120immediate": 6248, "Let": 6249, "hether": 6250, "\u0120multi": 6251, "phone": 6252, "\u00e2\u0122\u013b,": 6253, "-on": 6254, "ints": 6255, "\u0120yield": 6256, "-H": 6257, "\u0120Psych": 6258, "\u0120Leg": 6259, "\u0120veter": 6260, "\u0120newsp": 6261, "wo": 6262, "\u0120IP": 6263, "uts": 6264, "\u0120neighbor": 6265, "kes": 6266, "\u00e2\u0122\u013a": 6267, "irds": 6268, "\u0120medic": 6269, "weight": 6270, "icide": 6271, "\u0120persist": 6272, "\u0120marked": 6273, "tering": 6274, "\u0120supplies": 6275, "oted": 6276, "fish": 6277, "\u0120sequence": 6278, "\u0120organisms": 6279, "\u0120Yet": 6280, "\u0120agency": 6281, "\u0120layers": 6282, "Cont": 6283, "\u0120Ill": 6284, "\u0120replaced": 6285, "icon": 6286, "orld": 6287, "\u0120rid": 6288, "\u0120attend": 6289, "\u0120Gold": 6290, "\u0120everyday": 6291, "\u0120transportation": 6292, "\u0120agreement": 6293, "\u0120interaction": 6294, "\u0120wish": 6295, "\u0120Vis": 6296, "Bl": 6297, "nam": 6298, "\u0120unable": 6299, "\u0120Add": 6300, "\u0120Only": 6301, "anda": 6302, "\u0120customers": 6303, "\u0120virtual": 6304, "\u0120join": 6305, "\u0120organized": 6306, "\u0120instructions": 6307, "ifications": 6308, "\u0120workshe": 6309, "\u0120intervention": 6310, "\u0120rising": 6311, "\u0120prol": 6312, "\u0120substances": 6313, "\u0120ratio": 6314, "EP": 6315, "\u0120rhy": 6316, "riers": 6317, "ena": 6318, "\u0120accident": 6319, "\u0120calories": 6320, "\u0120Natural": 6321, "inction": 6322, "\u0120reserv": 6323, "\u0120circumstances": 6324, "\u0120description": 6325, "\u0120THE": 6326, "\u0120fixed": 6327, "\u0120Ext": 6328, "\u0120accum": 6329, "orous": 6330, "\u0120Frank": 6331, "\u0120attached": 6332, "\u0120epid": 6333, "\u0120shop": 6334, "uation": 6335, "\u0120OF": 6336, "ua": 6337, "\u0120preval": 6338, "ini": 6339, "ey": 6340, "\u0120reactions": 6341, "\u0120ends": 6342, "liam": 6343, "itudes": 6344, "\u0120nearby": 6345, "rite": 6346, "\u0120perce": 6347, "\u0120ourselves": 6348, "\u0120failed": 6349, "\u0120swim": 6350, "\u0120Street": 6351, "\u0120implementation": 6352, "\u0120babies": 6353, "\u0120breath": 6354, "\u0120Constitution": 6355, "heast": 6356, "\u0120necessarily": 6357, "sts": 6358, "zed": 6359, "\u0120overl": 6360, "\u0120holid": 6361, "orses": 6362, "\u0120presentation": 6363, "\u0120ahead": 6364, "\u0120pool": 6365, "\u0120examine": 6366, "\u0120bot": 6367, "\u0120poison": 6368, "\u0120tank": 6369, "\u0120zero": 6370, "\u0120Rad": 6371, "\u0120cm": 6372, "\u0120scan": 6373, "reland": 6374, "\u0120inhab": 6375, "\u0120housing": 6376, "zil": 6377, "\u0120exercises": 6378, "\u0120percentage": 6379, "\u0120Div": 6380, "\u0120limits": 6381, "\u0120cos": 6382, "\u0120remark": 6383, "\u0120grew": 6384, "\u0120trained": 6385, "\u0120responses": 6386, "\u0120Color": 6387, "\u0120chosen": 6388, "\u0120minerals": 6389, "\u0120Tor": 6390, "\u0120Home": 6391, "\u0120challenging": 6392, "ymph": 6393, "Over": 6394, "\u0120outbre": 6395, "\u0120intellect": 6396, "LA": 6397, "\u0120nest": 6398, "from": 6399, "opl": 6400, "yles": 6401, "\u0120gone": 6402, "\u0120participate": 6403, "\u0120eld": 6404, "\u0120bread": 6405, "\u0120improvement": 6406, "\u0120Valley": 6407, "\u0120prompt": 6408, "\u0120tex": 6409, "\u0120confidence": 6410, "\u0120psychological": 6411, "\u0120princip": 6412, "\u0120regist": 6413, ".|\u010a": 6414, "\u0120connections": 6415, "\u0120shut": 6416, "\u0120standing": 6417, "agon": 6418, "\u0120Cancer": 6419, "\u0120hole": 6420, "\u0120Step": 6421, "\u0120www": 6422, "\u0120comparison": 6423, "\u0120butter": 6424, "\u0120feedback": 6425, "\u0120pair": 6426, "\u0120sheet": 6427, "icious": 6428, "\u0120maps": 6429, "\u0120Administ": 6430, "uter": 6431, "\u0120USA": 6432, "\u0120Oh": 6433, "asters": 6434, "\u0120instruments": 6435, "itter": 6436, "\u0120wasn": 6437, "\u0120insurance": 6438, "ocracy": 6439, "\u0120lies": 6440, "\u0120Scot": 6441, "hop": 6442, "\u0120witness": 6443, "\u0120Long": 6444, "amins": 6445, "\u0120ethnic": 6446, "ventions": 6447, "\u0120generations": 6448, "\u0120acknow": 6449, "\u0120putting": 6450, "Int": 6451, "roduction": 6452, "\u0120painting": 6453, "dule": 6454, "\u0120mining": 6455, "\u0120institution": 6456, "\u0120covers": 6457, "\u0120stable": 6458, "elesc": 6459, "win": 6460, "\u0120exists": 6461, "abulary": 6462, "\u0120gap": 6463, "stone": 6464, "\u0120founded": 6465, "\u0120tissues": 6466, "\u0120eastern": 6467, "\u0120clust": 6468, "irt": 6469, "\u0120Form": 6470, "\u0120frequent": 6471, "ella": 6472, "\u0120maintaining": 6473, "Se": 6474, "oned": 6475, "\u0120equivalent": 6476, "\u0120flag": 6477, "\u0120mos": 6478, "\u0120meters": 6479, "\u0120Exper": 6480, "\u0120consumer": 6481, "\u0120expressed": 6482, "\u0120knows": 6483, "\u0120horiz": 6484, "\u0120capture": 6485, "\u0120variable": 6486, "umps": 6487, "\u0120string": 6488, "\u0120Northern": 6489, "\u0120destroyed": 6490, "liament": 6491, "-pro": 6492, "\u0120zone": 6493, "\u0120Hall": 6494, "\u0120ment": 6495, "\u0120drain": 6496, "\u0120daughter": 6497, "\u0120authorities": 6498, "\u0120spending": 6499, "\u0120launched": 6500, "\u0120fighting": 6501, "uels": 6502, "\u0120Pers": 6503, "\u0120Native": 6504, "\u0120meal": 6505, "inity": 6506, "\u0120chick": 6507, "\u0120Bre": 6508, "\u0120Carolina": 6509, "\u0120renewable": 6510, "\u0120indeed": 6511, "\u00e2\u0122\u013f.\u010a": 6512, "\u0120border": 6513, "\u0120Ireland": 6514, "First": 6515, "\u0120Det": 6516, "\u0120department": 6517, "\u0120organs": 6518, "\u0120Gard": 6519, "opic": 6520, "\u0120define": 6521, "\u0120cards": 6522, "itan": 6523, "Of": 6524, "ora": 6525, "\u0120Chic": 6526, "\u0120Dan": 6527, "\u0120latter": 6528, "\u0120worry": 6529, "\u0120mice": 6530, "abled": 6531, "\u0120kidney": 6532, "-level": 6533, "sey": 6534, "\u0120tract": 6535, "\u0120arrived": 6536, "\u0120doubt": 6537, "\u0120Have": 6538, "\u0120Sciences": 6539, "\u0120spaces": 6540, "espread": 6541, "\u0120hus": 6542, "\u0120smooth": 6543, "\u0120Ox": 6544, "\u0120fold": 6545, "\u0120evaluation": 6546, "DP": 6547, "\u0120Academy": 6548, "\u0120damaged": 6549, "\u0120blocks": 6550, "yth": 6551, "itative": 6552, "\u0120Rome": 6553, "\u0120lect": 6554, "\u0120viruses": 6555, "anta": 6556, "\u0120thousand": 6557, "\u0120cup": 6558, "state": 6559, "\u0120insulin": 6560, "\u0120distur": 6561, "\u0120represented": 6562, "ediatric": 6563, "\u0120demonstrate": 6564, "earing": 6565, "thritis": 6566, "\u0120protocol": 6567, "rooms": 6568, "\u0120Time": 6569, "\u0120recognition": 6570, "\u0120crow": 6571, "\u0120Mad": 6572, "elled": 6573, "\u0120debt": 6574, "itamin": 6575, "IP": 6576, "\u0120players": 6577, "quit": 6578, "\u0120hem": 6579, "\u0120installed": 6580, "\u0120membr": 6581, "\u0120physics": 6582, "anches": 6583, "\u0120delivery": 6584, "stein": 6585, "hist": 6586, "\u0120Exp": 6587, "ults": 6588, "\u0120Take": 6589, "\u0120observations": 6590, "\u0120compare": 6591, "\u0120IN": 6592, "irty": 6593, "\u0120accessible": 6594, "See": 6595, "\u0120industries": 6596, "stract": 6597, "\u0120Revolution": 6598, "\u0120chrom": 6599, "\u0120Climate": 6600, "\u0120usage": 6601, "\u0120rivers": 6602, "\u0120Sol": 6603, "\u0120estimates": 6604, "\u0120Study": 6605, "\u0120settings": 6606, "\u0120reduces": 6607, "bra": 6608, "\u0120philosophy": 6609, "cher": 6610, "osion": 6611, "\u0120entry": 6612, "kins": 6613, "tic": 6614, "\u0120paralle": 6615, "\u0120contained": 6616, "\u0120voltage": 6617, "rovers": 6618, "\u0120operate": 6619, "\u0120competition": 6620, "\u0120Review": 6621, "\u0120Penn": 6622, "\u0120Cy": 6623, "body": 6624, "such": 6625, "\u0120earthqu": 6626, "\u0120forget": 6627, "\u0120repair": 6628, "\u0120interf": 6629, "\u0120biod": 6630, "aked": 6631, "\u0120Agricult": 6632, "hered": 6633, "Even": 6634, "\u0120bond": 6635, "ca": 6636, "\u0120brings": 6637, "\u0120delay": 6638, "\u0120mechanisms": 6639, "\u0120Bank": 6640, "\u0120mood": 6641, "\u0120moisture": 6642, "usiness": 6643, "IL": 6644, "ditional": 6645, "\u0120prove": 6646, "\u0120guarant": 6647, "\u0120Free": 6648, "\u0120critic": 6649, "\u0120prev": 6650, "\u0120independence": 6651, "\u0120volcan": 6652, "Once": 6653, "\u0120trials": 6654, "yroid": 6655, "\u0120vote": 6656, "\u0120match": 6657, "\u0120Commit": 6658, "Rec": 6659, "\u0120partner": 6660, "hesis": 6661, "\u0120married": 6662, "\u0120Italy": 6663, "ighter": 6664, "\u0120crime": 6665, "BS": 6666, "itely": 6667, "\u0120burning": 6668, "\u0120reject": 6669, "urric": 6670, "arn": 6671, "\u0120historic": 6672, "\u0120Spain": 6673, "\u0120plenty": 6674, "\u0120Peter": 6675, "\u0120comments": 6676, "\u0120Rob": 6677, "isters": 6678, "urrent": 6679, "\u0120beliefs": 6680, "\u0120photo": 6681, "\u0120tight": 6682, "utch": 6683, "\u0120ru": 6684, "\u0120occasion": 6685, "rd": 6686, "oding": 6687, "\u0120essays": 6688, "ading": 6689, "nee": 6690, "\u0120pounds": 6691, "\u0120desire": 6692, "\u0120ongoing": 6693, "\u0120Diff": 6694, "\u0120End": 6695, "\u0120infect": 6696, "\u0120AS": 6697, "\u0120Sing": 6698, "\u0120spok": 6699, "abb": 6700, "but": 6701, "\u0120pregnant": 6702, "while": 6703, "atal": 6704, "\u0120runs": 6705, "\u0120joined": 6706, "ether": 6707, "\u0120tons": 6708, "\u0120resulted": 6709, "\u0120gram": 6710, "\u0120succeed": 6711, "struction": 6712, "\u0120rice": 6713, "\u0120conclusion": 6714, "ita": 6715, "\u0120fro": 6716, "\u0120territory": 6717, "Today": 6718, "\u0120trip": 6719, "\u0120award": 6720, "\u0120Stat": 6721, "\u0120holds": 6722, "\u0120surfaces": 6723, "\u0120bridge": 6724, "-R": 6725, "\u0120inhib": 6726, "\u0120glucose": 6727, "\u0120subs": 6728, "ola": 6729, "\u0120nose": 6730, "\u0120reliable": 6731, "\u0120refuge": 6732, "\u0120Joseph": 6733, "\u0120ingredients": 6734, "itivity": 6735, "\u0120Pract": 6736, "\u0120scene": 6737, "\u0120nervous": 6738, "agram": 6739, "\u0120\u00ce": 6740, "\u0120widespread": 6741, "\u0120Ca": 6742, "\u0120politics": 6743, "eless": 6744, "\u0120collaboration": 6745, "airy": 6746, "\u0120irrit": 6747, "\u0120whereas": 6748, "ourage": 6749, "\u0120Language": 6750, "gical": 6751, "\u0120blow": 6752, "\u0120markets": 6753, "\u0120electro": 6754, "isk": 6755, "nect": 6756, "\u0120vs": 6757, ".m": 6758, "\u0120willing": 6759, "\u0120categories": 6760, "\u0120loved": 6761, "\u0120cav": 6762, "\u0120cryst": 6763, "\u0120favorite": 6764, "\u0120shot": 6765, "\u0120functional": 6766, "\u0120archae": 6767, "\u0120bath": 6768, "iox": 6769, "rency": 6770, "\u0120artists": 6771, "liest": 6772, "\u0120satellite": 6773, "\u0120objective": 6774, "\u0120preventing": 6775, "\u0120danger": 6776, "utrition": 6777, "\u0120whatever": 6778, "\u0120EU": 6779, "ohyd": 6780, "igned": 6781, "\u0120ped": 6782, "\u0120rig": 6783, "\u0120interactions": 6784, "ented": 6785, "Every": 6786, "\u0120employment": 6787, "health": 6788, "heimer": 6789, "\u0120script": 6790, "ethod": 6791, "usal": 6792, "\u0120incred": 6793, "\u0120funds": 6794, "CD": 6795, "\u0120constantly": 6796, "\u0120Camp": 6797, "\u0120administr": 6798, "\u0120Wood": 6799, "een": 6800, "\u0120fer": 6801, "\u0120asking": 6802, "\u0120resolution": 6803, "acco": 6804, "idity": 6805, "\u0120Guide": 6806, "\u0120Royal": 6807, "pes": 6808, "\u0120hun": 6809, "\u0120ships": 6810, "\u0120Gal": 6811, "\u0120involving": 6812, "\u0120respiratory": 6813, "\u0120false": 6814, "aine": 6815, "fit": 6816, "\u0120Cult": 6817, "\u0120turning": 6818, "inally": 6819, "\u0120frame": 6820, "\u0120demonstrated": 6821, "\u0120Empire": 6822, "\u0120pand": 6823, "\u0120facing": 6824, "\u0120intest": 6825, "\u0120coastal": 6826, "Because": 6827, "\u0120shapes": 6828, "\u0120Scott": 6829, "ommon": 6830, "\u0120mand": 6831, "\u0120evaluate": 6832, "\u0120intense": 6833, "\u0120sections": 6834, "\u0120mechanical": 6835, "no": 6836, "\u0120Face": 6837, "teen": 6838, "\u0120rely": 6839, "\u0120wait": 6840, "-and": 6841, "rine": 6842, "ittle": 6843, "ushed": 6844, "gers": 6845, "\u0120Big": 6846, "\u0120tub": 6847, "\u0120kilomet": 6848, "alls": 6849, "\u0120alle": 6850, "\u0120surve": 6851, "\u0120route": 6852, "\u0120Mill": 6853, "\u0120rocks": 6854, "\u0120missing": 6855, "ML": 6856, "omer": 6857, "\u0120cleaning": 6858, "\u0120complicated": 6859, "\u0120trouble": 6860, "\u0120mode": 6861, "\u0120asthma": 6862, "\u0120earn": 6863, "\u0120Where": 6864, "asty": 6865, "\u0120Board": 6866, "\u0120supposed": 6867, "\u0120tube": 6868, "\u0120seconds": 6869, "han": 6870, "\u0120Works": 6871, "onia": 6872, "\u0120neur": 6873, "\u0120centre": 6874, "\u0120issued": 6875, "\u0120jump": 6876, "opes": 6877, "\u0120fashion": 6878, "\u0120aims": 6879, "\u0120facility": 6880, "-L": 6881, "\u0120recept": 6882, "\u0120recommendations": 6883, "born": 6884, "\u0120photos": 6885, "\u0120Year": 6886, "\u0120hypothes": 6887, "\u0120abnormal": 6888, "\u0120tut": 6889, "roat": 6890, "otton": 6891, "\u0120Dig": 6892, "\u0120Wik": 6893, "pet": 6894, "eers": 6895, "\u0120constitution": 6896, "\u0120mm": 6897, "-E": 6898, "ocy": 6899, "\u0120dys": 6900, "erior": 6901, "\u0120measurement": 6902, "\u0120theme": 6903, "\u0120Teac": 6904, "\u0120pp": 6905, "idential": 6906, "\u0120blind": 6907, "-T": 6908, "\u0120focuses": 6909, "\u0120Ann": 6910, "\u0120breeding": 6911, "war": 6912, "reek": 6913, "\u0120Check": 6914, "Qu": 6915, "\u0120offering": 6916, "ployment": 6917, "\u0120ended": 6918, "\u0120adequate": 6919, "\u0120troops": 6920, "\u0120county": 6921, "\u0120explo": 6922, "\u0120designs": 6923, "\u0120Brazil": 6924, "\u0120artist": 6925, "\u0120relief": 6926, "\u0120farming": 6927, "\u0120boys": 6928, "\u0120flower": 6929, "\u0120pharm": 6930, "\u0120estimate": 6931, "\u0120shif": 6932, "example": 6933, "\u0120Georg": 6934, "everal": 6935, "\u0120gut": 6936, "\u0120announced": 6937, "agraph": 6938, "\u0120ov": 6939, "\u0120conven": 6940, "\u0120galax": 6941, "\u0120Christmas": 6942, "ovascular": 6943, "hav": 6944, "\u0120brush": 6945, "\u0120Sometimes": 6946, "\u0120conversation": 6947, "\u0120expansion": 6948, "igan": 6949, "\u0120measurements": 6950, "\u0120integrated": 6951, "\u0120arts": 6952, "\u0120biology": 6953, "\u0120ring": 6954, "\u0120guidance": 6955, "ifest": 6956, "\u0120controls": 6957, "\u0120Report": 6958, "rowing": 6959, "\u0120realize": 6960, "\u0120hormone": 6961, "\u0120Victor": 6962, "\u0120column": 6963, "\u0120vac": 6964, "\u0120Early": 6965, "\u0120switch": 6966, "\u0120Clin": 6967, "\u0120advantages": 6968, "hent": 6969, "\u0120blo": 6970, "\u0120twenty": 6971, "\u0120constructed": 6972, "\u0120sole": 6973, "ctor": 6974, "\u0120Brown": 6975, "\u0120learners": 6976, "iration": 6977, "\u0120receiving": 6978, "\u0120clothing": 6979, "________": 6980, "\u0120Mag": 6981, "\u0120centers": 6982, "IR": 6983, "iological": 6984, "ishment": 6985, "\u0120moves": 6986, "\u0120Cap": 6987, "\u0120varieties": 6988, "\u0120heating": 6989, "aming": 6990, "\u0120circle": 6991, "\u0120Pan": 6992, "\u0120explanation": 6993, "\u0120Forest": 6994, "\u0120legislation": 6995, "\u0120paras": 6996, "occ": 6997, "gs": 6998, "\u0120ske": 6999, "\u0120approved": 7000, "\u0120proven": 7001, "\u0120excessive": 7002, "\u0120holding": 7003, "\u0120arrange": 7004, "ulty": 7005, "hyd": 7006, "\u0120visitors": 7007, "\u0120manip": 7008, "\u0120thanks": 7009, "\u00e2\u0122\u013b.": 7010, "reated": 7011, "\u00c2\u00b7": 7012, "\u0120Chicago": 7013, "\u0120dollars": 7014, "\u0120furn": 7015, "\u0120stre": 7016, "\u0120treating": 7017, "\u0120reven": 7018, "\u0120banks": 7019, "\u0120texts": 7020, "\u0120genet": 7021, "\u0120females": 7022, "\u0120Before": 7023, "mes": 7024, "olving": 7025, "\u0120drawn": 7026, "\u0120Fort": 7027, "\u0120fung": 7028, "\u0120scientist": 7029, "\u0120undert": 7030, "orical": 7031, "\u0120Agency": 7032, "\u0120shock": 7033, "\u0120messages": 7034, "\u0120pra": 7035, "\u0120angle": 7036, "\u0120roles": 7037, "\u0120launch": 7038, "\u0120Resources": 7039, "\u0120comfortable": 7040, "\u0120Family": 7041, "\u0120boy": 7042, "\u0120examination": 7043, "\u0120copper": 7044, "azine": 7045, "\u0120Age": 7046, "ki": 7047, "\u0120preparation": 7048, "\u0120seeking": 7049, "\u0120chest": 7050, "eenth": 7051, "ureau": 7052, "\u0120street": 7053, "\u0120formula": 7054, "\u0120cooking": 7055, "\u0120advert": 7056, "\u0120lights": 7057, "aired": 7058, "Go": 7059, "-cont": 7060, "\u0120disaster": 7061, "\u0120males": 7062, "\u0120matters": 7063, "\u0120victims": 7064, "\u0120bigger": 7065, "\u0120category": 7066, "\u0120significance": 7067, "\u0120mathematics": 7068, "\u0120Atlantic": 7069, "\u0120TV": 7070, "aska": 7071, "\u0120publication": 7072, "\u0120Set": 7073, "SS": 7074, "\u0120controvers": 7075, "\u0120ille": 7076, "otes": 7077, "\u0120Creat": 7078, "\u0120committed": 7079, "zheimer": 7080, "\u0120Services": 7081, "wing": 7082, "-scale": 7083, "HD": 7084, "\u0120item": 7085, "ocation": 7086, "\u0120powers": 7087, "\u0120Moon": 7088, "\u0120pestic": 7089, "\u0120composed": 7090, "\u0120happening": 7091, "how": 7092, "\u0120Times": 7093, "\u0120participation": 7094, "\u0120videos": 7095, "\u0120breed": 7096, "gments": 7097, "\u0120stronger": 7098, "\u0120plus": 7099, "itual": 7100, "\u0120metabol": 7101, "\u0120theories": 7102, "\u0120horses": 7103, "\u0120Equ": 7104, "ala": 7105, "oples": 7106, "col": 7107, "\u0120beauty": 7108, "itt": 7109, "\u0120trigger": 7110, "\u0120rank": 7111, "\u0120presents": 7112, "estion": 7113, "\u0120roughly": 7114, "People": 7115, "\u0120association": 7116, "\u0120Eastern": 7117, "\u0120careful": 7118, "\u0120statistics": 7119, "\u0120mixt": 7120, "aning": 7121, "riend": 7122, "\u0120turb": 7123, "aded": 7124, "IA": 7125, "\u0120consume": 7126, "\u0120anywhere": 7127, "ady": 7128, "\u0120peak": 7129, "\u0120rarely": 7130, "heric": 7131, "adder": 7132, "\u0120List": 7133, "Don": 7134, "\u0120Michael": 7135, "\u0120Committee": 7136, "\u0120fairly": 7137, "itting": 7138, "\u0120holes": 7139, "\u0120Richard": 7140, "\u0120owner": 7141, "\u0120mic": 7142, "\u0120accuracy": 7143, "\u0120considering": 7144, "\u0120theore": 7145, "\u0120positions": 7146, "CA": 7147, "ihood": 7148, "\u0120serving": 7149, "\u0120Ast": 7150, "eren": 7151, "itals": 7152, "plant": 7153, "?\u00e2\u0122\u013f": 7154, "\u0120phenomenon": 7155, "\u0120overw": 7156, "rene": 7157, "\u0120passage": 7158, "\u0120employed": 7159, "ugh": 7160, "pan": 7161, "\u0120literacy": 7162, "\u0120innovation": 7163, "IM": 7164, "rieved": 7165, "\u0120honor": 7166, "\u0120teams": 7167, "\u0120unusual": 7168, "arsh": 7169, "\u0120Irish": 7170, "cycl": 7171, "\u0120Italian": 7172, "\u0120Open": 7173, "raining": 7174, "\u0120mineral": 7175, "\u0120mold": 7176, "-ch": 7177, "\u0120Plant": 7178, "\u0120relation": 7179, "\u0120spin": 7180, "inson": 7181, "aph": 7182, "outs": 7183, "\u0120Though": 7184, "\u0120fulf": 7185, "\u0120filter": 7186, "\u0120amazing": 7187, "\u0120lake": 7188, "Me": 7189, "\u0120influenced": 7190, "\u0120session": 7191, "\u0120minute": 7192, "\u0120hazard": 7193, "\u0120division": 7194, "\u0120Acc": 7195, "\u0120orient": 7196, "\u0120AP": 7197, "\u0120Learn": 7198, "\u0120brows": 7199, "\u0120provider": 7200, "\u0120vitamins": 7201, "\u0120deeper": 7202, ".A": 7203, "\u0120strongly": 7204, "\u0120Str": 7205, "charge": 7206, "ivered": 7207, "\u0120bringing": 7208, "gu": 7209, "orders": 7210, "\u0120dose": 7211, "\u0120Adv": 7212, "\u0120sport": 7213, "oir": 7214, "\u0120grid": 7215, "\u0120branches": 7216, "apse": 7217, "\u0120defect": 7218, "\u0120transp": 7219, "\u0120score": 7220, "\u0120chlor": 7221, "\u0120knowing": 7222, "\u0120panel": 7223, "\u0120Zeal": 7224, "oven": 7225, "ooking": 7226, "avery": 7227, "\u0120none": 7228, "\u0120mortality": 7229, "\u0120islands": 7230, "rane": 7231, "\u0120imagine": 7232, "ioxid": 7233, "\u0120schedule": 7234, "\u0120vocabulary": 7235, "\u0120Kingdom": 7236, "\u0120encouraged": 7237, "\u0120antibiotics": 7238, "\u0120distributed": 7239, "\u0120gradually": 7240, "\u0120silver": 7241, "\u0120healing": 7242, "\u0120somewhat": 7243, "\u0120drought": 7244, "\u0120essentially": 7245, "\u0120Eth": 7246, "\u0120entered": 7247, "\u0120poem": 7248, "\u0120nitrogen": 7249, "cking": 7250, "\u0120detection": 7251, "\u0120complications": 7252, "\u0120sunlight": 7253, "\u0120Sym": 7254, "emia": 7255, "\u0120dealing": 7256, "\u0120Word": 7257, "\u0120destruction": 7258, "Or": 7259, "\u0120removal": 7260, "UT": 7261, "\u0120engineers": 7262, "\u0120declared": 7263, "\u0120eliminate": 7264, "\u0120decor": 7265, "\u0120passing": 7266, "\u0120falls": 7267, "-r": 7268, "\u00c3\u00bc": 7269, "\u0120Windows": 7270, "arents": 7271, "\u0120agreed": 7272, "\u0120criteria": 7273, "\u0120adds": 7274, "\u0120compris": 7275, "\u0120implemented": 7276, "orph": 7277, "\u0120variables": 7278, "\u0120strict": 7279, "\u0120engaged": 7280, "\u0120transact": 7281, "\u00e2\u0122\u013eWe": 7282, "\u0120outcome": 7283, "angered": 7284, "ommod": 7285, "amination": 7286, "\u0120fishing": 7287, "\u0120aband": 7288, "\u0120listening": 7289, "\u0120senior": 7290, "\u0120forg": 7291, "esides": 7292, "\u0120grows": 7293, "oga": 7294, "\u0120roads": 7295, "\u0120desired": 7296, "\u0120tropical": 7297, "\u0120outer": 7298, "iability": 7299, "\u0120spectrum": 7300, "igue": 7301, "\u0120Does": 7302, "\u0120Asian": 7303, "\u0120Change": 7304, "\u0120intellectual": 7305, "rav": 7306, "\u0120marks": 7307, "\u0120physician": 7308, "\u0120molecular": 7309, "\u0120Zealand": 7310, "\u0120carrying": 7311, "\u0120honey": 7312, "\u0120dates": 7313, "\u0120bees": 7314, "\u0120fourth": 7315, "\u0120gro": 7316, "\u0120compound": 7317, "\u0120election": 7318, "\u0120Centre": 7319, "\u0120effectiveness": 7320, "\u0120sharp": 7321, "\u0120defe": 7322, "ollowing": 7323, "aud": 7324, "\u0120uncertain": 7325, "gien": 7326, "\u0120evolved": 7327, "CE": 7328, "\u0120empt": 7329, "\u0120Please": 7330, "\u0120recover": 7331, "\u0120serves": 7332, "\u0120depart": 7333, "chen": 7334, "\u0120orbit": 7335, "\u0120printing": 7336, "rox": 7337, "\u0120threats": 7338, "herent": 7339, "\u0120newly": 7340, "\u0120contemporary": 7341, "ml": 7342, "bles": 7343, "\u0120Director": 7344, "ogether": 7345, "OL": 7346, "\u0120printed": 7347, "-qu": 7348, "mers": 7349, "igate": 7350, "ograp": 7351, "ounce": 7352, "\u0120coron": 7353, "\u0120Administration": 7354, "\u0120confirmed": 7355, "amine": 7356, "\u0120Access": 7357, "\u0120commission": 7358, "-cl": 7359, "\u0120experiencing": 7360, "\u0120Sil": 7361, "\u0120disrupt": 7362, "\u0120Alzheimer": 7363, "\u0120screening": 7364, "\u0120Community": 7365, "\u0120MD": 7366, "\u0120warning": 7367, "ounter": 7368, "\u0120dependent": 7369, "\u0120lungs": 7370, "\u0120processed": 7371, "\u0120captured": 7372, "\u0120escape": 7373, "\u0120remind": 7374, "\u0120parallel": 7375, "\u0120domain": 7376, "\u0120implications": 7377, "@example": 7378, "\u0120slavery": 7379, "-being": 7380, "\u0120Engineering": 7381, "\u0120crim": 7382, "\u0120innovative": 7383, "\u0120flour": 7384, "\u0120District": 7385, "\u0120meals": 7386, "IDS": 7387, "\u0120acute": 7388, "Get": 7389, "\u0120characterized": 7390, "olesc": 7391, "\u0120maybe": 7392, "\u0120athlet": 7393, "\u0120Bab": 7394, "\u0120sales": 7395, "\u0120inher": 7396, "\u0120Network": 7397, "\u0120negot": 7398, "\u0120crew": 7399, "\u0120observe": 7400, "\u0120combat": 7401, "\u0120fest": 7402, "\u0120Mer": 7403, "\u0120proof": 7404, "\u0120pin": 7405, "ortion": 7406, "\u0120forth": 7407, "RA": 7408, "\u0120cash": 7409, "\u0120rab": 7410, "\u0120remed": 7411, "\u0120Additionally": 7412, "\u0120finished": 7413, "icing": 7414, "\u0120decay": 7415, "\u0120discrimination": 7416, "\u0120edition": 7417, "....": 7418, "\u0120clar": 7419, "\u0120reward": 7420, "\u0120delivered": 7421, "ipedia": 7422, "forcement": 7423, "\u0120stores": 7424, "\u0120Special": 7425, "yal": 7426, "\u0120nob": 7427, "\u0120Rock": 7428, "\u0120cyber": 7429, "isdom": 7430, "tles": 7431, "\u0120signed": 7432, "uh": 7433, "\u0120insert": 7434, "rays": 7435, "\u0120Pub": 7436, "reate": 7437, "ustain": 7438, "\u0120diameter": 7439, "asses": 7440, "operation": 7441, "\u0120targets": 7442, "\u0120ton": 7443, "\u0120planting": 7444, "IG": 7445, "\u0120measuring": 7446, "soft": 7447, "\u0120attempts": 7448, "ontal": 7449, "greg": 7450, "\u0120wound": 7451, "\u0120writers": 7452, "fts": 7453, "mia": 7454, "\u0120wine": 7455, "ih": 7456, "icy": 7457, "\u0120racial": 7458, "\u0120neighborhood": 7459, "ildren": 7460, "\u0120difficulties": 7461, "coming": 7462, "\u0120earliest": 7463, "\u0120windows": 7464, "\u0120sensors": 7465, "\u0120array": 7466, "vard": 7467, "\u0120planned": 7468, "\u0120fed": 7469, "\u0120Security": 7470, "Comp": 7471, "\u0120Martin": 7472, "\u0120stuff": 7473, "\u0120trends": 7474, "ecess": 7475, "ucky": 7476, "\u0120indicated": 7477, "ilation": 7478, "\u0120robot": 7479, "\u0120correctly": 7480, "\u0120giant": 7481, "\u0120gained": 7482, "\u0120plane": 7483, "etime": 7484, "\u0120Naz": 7485, "\u0120microsc": 7486, "\u00c3\u00b3": 7487, "\u0120Safety": 7488, "UN": 7489, "rous": 7490, "\u0120Indians": 7491, "rey": 7492, "ptions": 7493, "\u0120protecting": 7494, "\u0120pandemic": 7495, "\u0120cham": 7496, "OC": 7497, "including": 7498, "\u0120inn": 7499, "\u0120pit": 7500, "ffective": 7501, "\u0120Who": 7502, "haust": 7503, "\u0120modified": 7504, "\u0120Start": 7505, "\u0120Dar": 7506, "\u0120initially": 7507, "\u0120smell": 7508, "yr": 7509, "\u0120husband": 7510, "\u0120grain": 7511, "\u0120scar": 7512, "\u0120Type": 7513, "\u0120usual": 7514, "/d": 7515, "angle": 7516, "\u0120faced": 7517, "abil": 7518, "\u0120oldest": 7519, "\u0120stead": 7520, "\u0120driver": 7521, "\u0120autism": 7522, "\u0120grant": 7523, "\u0120towns": 7524, "\u0120Math": 7525, "Figure": 7526, "\u00e2\u0122\u00a6\u010a": 7527, "riz": 7528, "\u00e2\u0122\u0136the": 7529, "\u0120sought": 7530, "\u0120informed": 7531, "\u0120prominent": 7532, "\u0120subt": 7533, "\u0120wheel": 7534, "\u0120Indust": 7535, "\u0120corner": 7536, "\u0120branch": 7537, "essions": 7538, "\u0120Holy": 7539, "\u0120rose": 7540, "\u0120weapons": 7541, "\u0120researcher": 7542, "\u0120inspired": 7543, "\u0120config": 7544, "\u0120fatty": 7545, "esis": 7546, "\"The": 7547, "oln": 7548, "\u0120sitting": 7549, "\u0120Young": 7550, "About": 7551, "'m": 7552, "\u0120biom": 7553, "\u0120sail": 7554, "\u0120Prop": 7555, "\u0120Facebook": 7556, "\u0120lie": 7557, "\u0120mosquit": 7558, "\u0120vaccines": 7559, "\u0120beings": 7560, "\u0120sacr": 7561, "\u0120examined": 7562, "\u0120Columbia": 7563, "igare": 7564, "\u0120interactive": 7565, "\u0120hosp": 7566, "\u0120proportion": 7567, "iana": 7568, "\u0120Viet": 7569, "ruption": 7570, "\u0120caught": 7571, "\u0120principal": 7572, "\u0120Hy": 7573, "\u0120Despite": 7574, "ercury": 7575, "\u0120strengthen": 7576, "\u0120maintained": 7577, "\u0120occurring": 7578, "\u0120gases": 7579, "ricts": 7580, "\u0120worst": 7581, "oston": 7582, "\u0120laser": 7583, "\u0120carbohyd": 7584, "\u0120Hill": 7585, "\u0120hardware": 7586, "Am": 7587, "\u0120Find": 7588, "\u0120abilities": 7589, "\u0120assume": 7590, "\u0120structural": 7591, "allow": 7592, "\u0120Ohio": 7593, "\u0120Pet": 7594, "\u0120outd": 7595, "\u0120flows": 7596, "\u0120aged": 7597, "\u0120decreased": 7598, "\u0120AND": 7599, "\u0120identifying": 7600, "\u0120Ins": 7601, "\u0120plot": 7602, "\u0120Less": 7603, "abeth": 7604, "\u0120Moreover": 7605, "\u0120infant": 7606, "\u0120unw": 7607, "\u0120suscept": 7608, "\u0120withd": 7609, "\u0120seemed": 7610, "\u0120neither": 7611, "\u0120Non": 7612, "\u0120chances": 7613, "\u0120Den": 7614, "uits": 7615, "unicip": 7616, "\u0120cooling": 7617, "\u0120phosph": 7618, "\u0120py": 7619, "\u0120Angel": 7620, "\u0120exciting": 7621, "\u0120cancers": 7622, "\u0120Ec": 7623, "\u0120automatically": 7624, "CH": 7625, "akistan": 7626, "\u0120educators": 7627, "\u0120detected": 7628, "\u0120heavily": 7629, "\u0120subsequent": 7630, "-v": 7631, "\u0120supplements": 7632, "\u0120neu": 7633, "osh": 7634, "\u0120providers": 7635, "\u0120Reading": 7636, "Pre": 7637, "rot": 7638, "\u0120affecting": 7639, "\u0120dynamic": 7640, "\u0120statements": 7641, "\u0120protective": 7642, "amples": 7643, "asts": 7644, "\u0120chemistry": 7645, "\u0120analys": 7646, "\u0120opposed": 7647, "\u0120indigenous": 7648, "\u0120Prevention": 7649, "\u0120functioning": 7650, "\u0120Swed": 7651, "\u0120errors": 7652, "\u0120reveal": 7653, "\u0120Mel": 7654, "\u0120radical": 7655, "\u0120panels": 7656, "illa": 7657, "hea": 7658, "\u0120id": 7659, "\u0120paragraph": 7660, "\u0120manufacturers": 7661, "ostic": 7662, "NS": 7663, "Step": 7664, "\u0120Bill": 7665, "\u0120Rom": 7666, "\u0120alph": 7667, "\u0120Resp": 7668, "\u0120agents": 7669, "uten": 7670, "ommun": 7671, "\u0120equally": 7672, "\u0120fats": 7673, "\u0120Scotland": 7674, "\u0120phrase": 7675, "ano": 7676, "\u0120suffered": 7677, "\u0120herb": 7678, "\u0120editor": 7679, "plete": 7680, "PR": 7681, "\u0120thermal": 7682, "\u0120finds": 7683, "\u0120Try": 7684, "\u0120objectives": 7685, "\u0120enables": 7686, "-G": 7687, "\u0120player": 7688, "\u0120Lar": 7689, "\u0120III": 7690, "\u0120Among": 7691, "\u0120reaching": 7692, "\u0120stations": 7693, "\u0120guard": 7694, "\u0120polar": 7695, "\u0120cardiovascular": 7696, "\u0120exclus": 7697, "\u0120covering": 7698, "\u0120surge": 7699, "\u0120planets": 7700, "\u0120disabilities": 7701, "\u0120Coast": 7702, "\u0120coc": 7703, "\u0120Fund": 7704, "\u0120cure": 7705, "\u0120enorm": 7706, "\u0120button": 7707, "ega": 7708, "rade": 7709, "ogs": 7710, "\u0120rac": 7711, "\u0120lens": 7712, "\u0120mir": 7713, "\u0120bag": 7714, "\u0120dietary": 7715, "\u0120compost": 7716, "\u0120MS": 7717, "\u0120driven": 7718, "\u0120proved": 7719, "pling": 7720, "\u0120harder": 7721, "\u0120nice": 7722, "vania": 7723, "\u0120tables": 7724, "\u0120accommod": 7725, "\u0120analyze": 7726, "\u0120relie": 7727, "\u0120traditions": 7728, "\u0120intensity": 7729, "\u0120demands": 7730, "\u0120overcome": 7731, "She": 7732, "\u0120exceed": 7733, "ieval": 7734, "\u0120temple": 7735, "\u0120Sund": 7736, "\u0120television": 7737, "\u0120acres": 7738, "\u0120respectively": 7739, "\u0120conj": 7740, "\u0120Organization": 7741, "\u0120computing": 7742, "\u0120programme": 7743, "\u0120Furthermore": 7744, "\u0120musical": 7745, "\u0120batteries": 7746, "\u0120criminal": 7747, "\u0120defense": 7748, "\u0120Sign": 7749, "\u0120wheat": 7750, "\u0120exception": 7751, "otal": 7752, "rance": 7753, "\u0120Grand": 7754, "\u0120Hospital": 7755, "\u0120Super": 7756, "ulating": 7757, "\u0120Low": 7758, "\u0120coverage": 7759, "ersonal": 7760, "\u0120Po": 7761, "\u0120interpre": 7762, "incoln": 7763, "\u0120antioxid": 7764, "\u0120trauma": 7765, "urning": 7766, "ested": 7767, "\u0120quantum": 7768, "opyright": 7769, "\u0120\u00d0": 7770, "\u0120strain": 7771, "\u0120recycling": 7772, "\u0120heads": 7773, "-called": 7774, "\u0120substantial": 7775, "istical": 7776, "asant": 7777, "\u0120imaging": 7778, "amics": 7779, "\u0120inequ": 7780, "\u0120pla": 7781, "\u0120laid": 7782, "\u0120universal": 7783, "uber": 7784, "peror": 7785, "Per": 7786, "\u0120regardless": 7787, "\u0120fuels": 7788, "rint": 7789, "\u0120technological": 7790, "\u0120deficiency": 7791, "\u0120accompan": 7792, "\u0120prohib": 7793, "\u0120finger": 7794, "\u0120Sup": 7795, "\u0120bacterial": 7796, "iture": 7797, "apor": 7798, "-known": 7799, "\u0120introduce": 7800, "\u0120rect": 7801, "\u0120Polic": 7802, "\u0120Arctic": 7803, "\u0120advent": 7804, "\u0120seat": 7805, "\u0120consumed": 7806, "\u0120ensuring": 7807, "\u0120investigation": 7808, "\u0120websites": 7809, "App": 7810, "eness": 7811, "\u0120assigned": 7812, "\u0120mixture": 7813, "\u0120Lib": 7814, "\u0120disability": 7815, "\u0120epis": 7816, "urated": 7817, "-res": 7818, "eping": 7819, "\u0120alter": 7820, "neys": 7821, "aneously": 7822, "\u0120mathematical": 7823, "\u0120Michigan": 7824, "\u0120stability": 7825, "\u0120extend": 7826, "\u00c3\u00b6": 7827, "acent": 7828, "\u0120absence": 7829, "oured": 7830, "Also": 7831, "AA": 7832, "bridge": 7833, "etary": 7834, "ude": 7835, "\u0120Pop": 7836, "atively": 7837, "\u0120commitment": 7838, "syl": 7839, "\u0120productivity": 7840, "\u0120updated": 7841, "\u0120urine": 7842, "\u0120falling": 7843, "\u0120Protection": 7844, "\u0120Mult": 7845, "\u0120tob": 7846, "forest": 7847, "\u0120intent": 7848, "\u0120considerable": 7849, "\u0120farms": 7850, "\u0120authent": 7851, "\u00e2\u0122\u0136and": 7852, "lines": 7853, "\u0120moderate": 7854, "isco": 7855, "\u0120forming": 7856, "Under": 7857, "\u0120keeps": 7858, "ptom": 7859, "\u0120overwhel": 7860, "Last": 7861, "\u0120Ver": 7862, "\u0120client": 7863, "\u0120judge": 7864, "\u0120stake": 7865, "\u0120Fire": 7866, "EE": 7867, "erly": 7868, "\u0120heritage": 7869, "rary": 7870, "oli": 7871, "\u0120satisf": 7872, "onym": 7873, "\u0120Ut": 7874, "otherapy": 7875, "\u0120Lead": 7876, "ima": 7877, "\u0120cattle": 7878, "\u0120isolated": 7879, "\u0120managing": 7880, "\u0120grains": 7881, "gon": 7882, "\u0120viewed": 7883, "aws": 7884, "\u0120conference": 7885, "\u0120weakness": 7886, "just": 7887, "\u0120exploration": 7888, "\u0120adverse": 7889, "\u0120engaging": 7890, "\u0120hidden": 7891, "\u0120merely": 7892, "\u0120compens": 7893, "\u0120nutrient": 7894, "\u0120arrest": 7895, "(s": 7896, "uality": 7897, "\u0120elected": 7898, "azon": 7899, "izabeth": 7900, ".ht": 7901, "\u0120claimed": 7902, "\u0120mountains": 7903, "eut": 7904, "\u0120consideration": 7905, "\u0120writes": 7906, "athered": 7907, "\u0120slaves": 7908, "holders": 7909, "\u0120Ven": 7910, "\u0120sizes": 7911, "HS": 7912, "Ear": 7913, "\u0120joints": 7914, "ocial": 7915, "\u0120swit": 7916, "\u0120Dou": 7917, "ansas": 7918, "\u0120customer": 7919, "\u0120Party": 7920, "\u0120tong": 7921, "\u0120Cho": 7922, "\u0120Heart": 7923, "\u0120Without": 7924, "print": 7925, "\u0120cotton": 7926, "\u0120Unfortunately": 7927, "cyclop": 7928, "mm": 7929, "Before": 7930, "\u0120steam": 7931, "\u0120sentences": 7932, "iat": 7933, "\u0120focusing": 7934, "\u0120tap": 7935, "\u0120container": 7936, "\u0120hormones": 7937, "iary": 7938, "\u0120contribution": 7939, "Where": 7940, "\u0120exhaust": 7941, "Note": 7942, "\u0120cord": 7943, "\u0120stones": 7944, "berry": 7945, "Part": 7946, "\u0120Cast": 7947, "\u0120tobacco": 7948, "theless": 7949, "\u0120tumor": 7950, "\u0120dance": 7951, "\u0120Princ": 7952, "\u0120resil": 7953, "icted": 7954, "\u0120Conservation": 7955, "\u0120mg": 7956, "\u0120peoples": 7957, "\u0120interface": 7958, "\u0120identification": 7959, "\u0120Men": 7960, "\u0120cough": 7961, "\u0120aimed": 7962, "\u0120ceremon": 7963, "\u0120rhyth": 7964, "\u0120quantity": 7965, "\u0120Finally": 7966, "%)": 7967, "\u0120initiative": 7968, "\u0120flexible": 7969, "\u0120preserve": 7970, ".gov": 7971, "ette": 7972, "ulpt": 7973, "rical": 7974, "\u0120psychology": 7975, "\u0120drivers": 7976, "\u0120calling": 7977, "imm": 7978, "lu": 7979, "\u0120concluded": 7980, "\u0120sensor": 7981, "rolled": 7982, "\u0120insight": 7983, "\u0120Heb": 7984, "\u0120metals": 7985, "\u0120versions": 7986, "\u0120adm": 7987, "\u0120observation": 7988, "\u0120eru": 7989, "\u0120narrative": 7990, "\u0120Down": 7991, "otype": 7992, "BT": 7993, "\u0120cort": 7994, "elescope": 7995, "\u0120Gr": 7996, "\u0120literary": 7997, "Le": 7998, "\u0120Boston": 7999, "\u0120spray": 8000, "orted": 8001, "\u0120Never": 8002, "awn": 8003, "\u0120bomb": 8004, "\u0120descript": 8005, "words": 8006, "\u0120gum": 8007, "\u0120Star": 8008, "atial": 8009, "\u0120Three": 8010, "\u0120Jul": 8011, "\u0120IT": 8012, "eor": 8013, "\u0120Liter": 8014, "amps": 8015, "\u0120creatures": 8016, "\u0120channel": 8017, "\u0120variation": 8018, "isted": 8019, "\u0120Lo": 8020, "\u0120regulation": 8021, "\u0120Author": 8022, "\u0120Online": 8023, "\u0120concerning": 8024, "\u0120girl": 8025, "brid": 8026, "\u0120desert": 8027, "\u0120slave": 8028, "\u0120quiet": 8029, "\u0120quarter": 8030, "\u0120emphasis": 8031, "ruit": 8032, "\u0120acquired": 8033, "advant": 8034, "ali": 8035, "\u0120Johnson": 8036, "ivest": 8037, "\u0120Current": 8038, "\u0120styles": 8039, "\u0120believes": 8040, "\u0120hence": 8041, "ENT": 8042, "sylvania": 8043, "\u0120ol": 8044, "Using": 8045, "\u0120interpretation": 8046, "\u0120physically": 8047, "gence": 8048, "df": 8049, "mentia": 8050, "indu": 8051, "\u0120lymph": 8052, "\u0120correl": 8053, "MP": 8054, "elfare": 8055, "\u0120Pot": 8056, "\u0120mothers": 8057, "\u0120Georgia": 8058, "\u0120emerging": 8059, "\u0120dress": 8060, "ographical": 8061, "\u0120Note": 8062, "ocolate": 8063, "\u0120tip": 8064, "\u0120tack": 8065, "\u0120holiday": 8066, "itarian": 8067, "arbon": 8068, "alities": 8069, "\u0120Pakistan": 8070, "\u0120Jeff": 8071, "\u0120digestive": 8072, "\u0120watching": 8073, "\u0120experimental": 8074, "\u0120lighting": 8075, "\u0120fatigue": 8076, "\u0120flying": 8077, "\u0120Click": 8078, "\u0120Survey": 8079, "\u0120painful": 8080, "\u0120achievement": 8081, "\u0120lock": 8082, "alm": 8083, "esh": 8084, "\u0120manager": 8085, "ani": 8086, "\u0120vel": 8087, "\u0120Light": 8088, "itory": 8089, "vin": 8090, "enger": 8091, "\u0120defend": 8092, "\u0120hunting": 8093, "\u0120gast": 8094, "\u0120sensitivity": 8095, "\u0120addiction": 8096, "uset": 8097, "\u0120Wall": 8098, "icular": 8099, "\u0120safely": 8100, "\u0120Islam": 8101, "].": 8102, "\u0120ecosystems": 8103, "\u0120uniform": 8104, "\u0120drinks": 8105, "ema": 8106, "\u0120contributed": 8107, "apping": 8108, "\u0120conqu": 8109, "\u0120perm": 8110, "HA": 8111, "ogenic": 8112, "\u0120shoot": 8113, "\u0120dramatic": 8114, "requ": 8115, "\u0120advis": 8116, "\u0120reporting": 8117, "\u0120inhabit": 8118, "\u0120assets": 8119, "\u0120vertical": 8120, "\u0120sched": 8121, "iva": 8122, "\u0120availability": 8123, "\u0120granted": 8124, "\u0120translation": 8125, "\u0120Secret": 8126, "\u0120Est": 8127, "rize": 8128, "\u0120Method": 8129, "\u0120personality": 8130, "books": 8131, "edu": 8132, "\u0120tick": 8133, "\u0120ease": 8134, "MA": 8135, "lishing": 8136, "\u0120terror": 8137, "\u0120Korea": 8138, "\u0120geomet": 8139, "\u0120perception": 8140, "usetts": 8141, "\u0120TO": 8142, "\u0120spots": 8143, "iac": 8144, "\u0120separated": 8145, "\u0120wonderful": 8146, "achusetts": 8147, "\u0120sodium": 8148, "\u0120Pen": 8149, "ugg": 8150, "\u0120Colorado": 8151, "uting": 8152, "\u0120Sand": 8153, "\u0120summary": 8154, "\u0120profit": 8155, "\u0120manifest": 8156, "\u0120Top": 8157, "\u0120exhibit": 8158, "\".\u010a": 8159, "\u0120trick": 8160, "\u0120dairy": 8161, "\u0120colonial": 8162, "\u0120performing": 8163, "\u0120mine": 8164, "\u0120fires": 8165, "ket": 8166, "\u0120hygien": 8167, "\u0120migration": 8168, "\u0120Jo": 8169, "\u0120faces": 8170, "-a": 8171, "\u0120argue": 8172, "\u0120improvements": 8173, "antly": 8174, "Each": 8175, "\u0120addressed": 8176, "\u0120transmit": 8177, "/p": 8178, "hus": 8179, "ura": 8180, "\u0120vegetation": 8181, "\u0120lists": 8182, "\u0120representation": 8183, "\u0120comprom": 8184, "\u0120boundaries": 8185, "\u0120capabilities": 8186, "\u0120audio": 8187, "\u0120settlement": 8188, "\u0120clock": 8189, "econ": 8190, "\u0120devast": 8191, "\u0120Imm": 8192, "\u0120alive": 8193, "\u0120resid": 8194, "night": 8195, "\u0120scr": 8196, "ipe": 8197, "\u0120definitely": 8198, "ivestock": 8199, "\u0120officers": 8200, "\u0120buried": 8201, "\u0120om": 8202, "\u0120prey": 8203, "\u0120Hawai": 8204, "lete": 8205, "ecific": 8206, "Ed": 8207, "\u0120adolesc": 8208, "-century": 8209, "\u0120evil": 8210, "Use": 8211, "\u0120Four": 8212, "\u0120ye": 8213, "\u0120emotion": 8214, "\u0120illegal": 8215, "\u0120Jac": 8216, "\u0120dating": 8217, "rison": 8218, "ols": 8219, "\u0120shed": 8220, "semb": 8221, "\u0120dense": 8222, "Are": 8223, "irth": 8224, "\u0120weigh": 8225, "\u0120Ur": 8226, "\u0120irrig": 8227, "\u0120orb": 8228, "\u0120taxes": 8229, "eries": 8230, ")|\u010a": 8231, "\u0120gravity": 8232, "\u0120medicines": 8233, "\u0120pupils": 8234, "\u0120Dev": 8235, "\u0120Ep": 8236, "\u0120sustainability": 8237, "\u0120Obs": 8238, "\u0120Business": 8239, "\u0120substit": 8240, "\u0120Queen": 8241, "\u0120grades": 8242, "\u0120directions": 8243, "\u0120counsel": 8244, "\u0120balanced": 8245, "\u0120les": 8246, "\u0120biodiversity": 8247, "\u0120auton": 8248, "omers": 8249, "\u0120Retrieved": 8250, "\u0120movie": 8251, "\u0120removing": 8252, "\u0120Pennsylvania": 8253, "\u0120Play": 8254, "\u0120visited": 8255, "\u0120killing": 8256, "\u0120pH": 8257, "\u0120lip": 8258, "\u0120Similar": 8259, "\u0120feels": 8260, "\u0120interventions": 8261, "\u0120equation": 8262, "\u0120classified": 8263, "hire": 8264, "\u0120enemy": 8265, "\u0120mur": 8266, "bean": 8267, "\u0120expanded": 8268, "\u0120variations": 8269, "\u0120conserv": 8270, "anger": 8271, "\u0120Lincoln": 8272, "\u0120characteristic": 8273, "\u0120Tom": 8274, "\u0120nuts": 8275, "\u0120agent": 8276, "\u0120Laboratory": 8277, "\u0120atoms": 8278, "\u0120scores": 8279, "\u0120waiting": 8280, "\u0120expectations": 8281, "\u0120proceed": 8282, "zym": 8283, "eting": 8284, "Cons": 8285, "\u0120Wildlife": 8286, "\u0120concentrations": 8287, "\u0120attach": 8288, "\u0120pets": 8289, "\u0120communications": 8290, "\u0120democracy": 8291, "\u0120stopped": 8292, "\u0120Hand": 8293, "quir": 8294, "\u0120worship": 8295, "TP": 8296, "\u0120losses": 8297, "\u0120differently": 8298, "\u0120priority": 8299, "asy": 8300, "\u0120craft": 8301, "\u0120celebrated": 8302, "\u0120Help": 8303, "\u0120temporary": 8304, "\u0120fellow": 8305, "\u0120entertain": 8306, "\u0120behavioral": 8307, "\u0120marketing": 8308, "\u0120Assess": 8309, "bar": 8310, "\u0120aging": 8311, "\u0120ampl": 8312, "iah": 8313, "\u0120neutral": 8314, "\u0120telling": 8315, "last": 8316, "istant": 8317, "\u0120thread": 8318, "\u0120ven": 8319, "ashes": 8320, "\u0120convert": 8321, "\u0120reverse": 8322, "\u0120abstract": 8323, "\u0120cann": 8324, "aren": 8325, "\u0120charged": 8326, "\u0120Dutch": 8327, "ceans": 8328, "\u0120Cat": 8329, "CP": 8330, "\u0120saving": 8331, "htt": 8332, "\u0120ranging": 8333, "\u0120symbols": 8334, "\u0120fisher": 8335, "\u0120threatened": 8336, "\u0120solving": 8337, "\u0120dies": 8338, "fulness": 8339, "\u0120boat": 8340, "\u0120wearing": 8341, "\u0120orange": 8342, "\u0120guess": 8343, "\u0120remarkable": 8344, "\u0120Ly": 8345, "\u0120superior": 8346, "Hist": 8347, "irms": 8348, "erally": 8349, "\u0120wider": 8350, "\u0120engines": 8351, "\u0120Supreme": 8352, "ourse": 8353, "\u0120ran": 8354, "\u0120dimens": 8355, "\u0120lowest": 8356, "una": 8357, "\u0120logic": 8358, "\u0120executive": 8359, "\u0120bleeding": 8360, "\u0120simult": 8361, "\u0120nutritional": 8362, "\u0120thereby": 8363, "\u0120Kids": 8364, "ython": 8365, "\u0120directed": 8366, "\u0120Oper": 8367, "\u0120shaped": 8368, "ouds": 8369, "\u0120Avoid": 8370, "\u0120losing": 8371, "\u0120haven": 8372, "\u0120embra": 8373, "\u0120promoting": 8374, "lock": 8375, "\u0120beans": 8376, "ami": 8377, "\u0120tor": 8378, "\u0120Sir": 8379, "\u0120EPA": 8380, "\u0120tens": 8381, "\u0120poetry": 8382, "uum": 8383, "\u0120entering": 8384, "\u0120enormous": 8385, "\u0120myst": 8386, "Researchers": 8387, "\u0120Cir": 8388, "\u0120clothes": 8389, "\u0120Massachusetts": 8390, "pled": 8391, "\u0120Cross": 8392, "\u0120celebrate": 8393, "\u0120habitats": 8394, "\u0120thesis": 8395, "\u0120Blue": 8396, "\u0120Tim": 8397, "\u0120associate": 8398, "\u0120ecological": 8399, "\u0120Corn": 8400, "\u0120Ask": 8401, "\u0120Pur": 8402, "\u0120parameters": 8403, "\u0120investigate": 8404, "\u0120expertise": 8405, "\u0120pointed": 8406, "\u0120ordered": 8407, "\u0120spoken": 8408, "oves": 8409, "\u0120spinal": 8410, "\u0120lifetime": 8411, "\u0120wouldn": 8412, "\u0120Road": 8413, "\u0120societies": 8414, "ricted": 8415, "\u0120Dom": 8416, "\u0120permission": 8417, "\u0120conce": 8418, "\u0120develops": 8419, "\u0120Er": 8420, "\u0120ordinary": 8421, "\u0120split": 8422, "\u0120streets": 8423, "\u0120deeply": 8424, "\u0120chap": 8425, "\u0120sculpt": 8426, "\u0120households": 8427, "\u0120applying": 8428, "\u0120spacecraft": 8429, "\u0120ears": 8430, "\u0120UV": 8431, "\u0120Lin": 8432, "\u0120Minister": 8433, "\u0120diarr": 8434, "Med": 8435, "esium": 8436, "\u0120wisdom": 8437, "\u0120ritual": 8438, "\u0120throat": 8439, "usive": 8440, "hal": 8441, "erman": 8442, "sor": 8443, "riendly": 8444, "\u0120graduate": 8445, "endar": 8446, "sell": 8447, "\u0120humanity": 8448, "\u0120Imp": 8449, "Learn": 8450, "\u0120fo": 8451, "\u0120crypt": 8452, "\u0120colonies": 8453, "ipher": 8454, "neum": 8455, "\u0120Way": 8456, "\u0120libr": 8457, "\u0120Contin": 8458, "\u0120interior": 8459, "\u0120AR": 8460, "\u0120Hebrew": 8461, "erb": 8462, "unct": 8463, "\u0120owned": 8464, "\u0120illnesses": 8465, "\u0120Back": 8466, "\u0120manual": 8467, "\u0120bee": 8468, "\u0120universities": 8469, "\u0120Point": 8470, "Just": 8471, "\u0120Init": 8472, "\u0120Tre": 8473, "\u0120regarded": 8474, "\u0120plain": 8475, "\u0120determining": 8476, "\u0120outbreak": 8477, "ao": 8478, "\u0120infants": 8479, "\u0120scope": 8480, "ician": 8481, "\u0120juice": 8482, "\u0120Elizabeth": 8483, "\u0120DO": 8484, "agnetic": 8485, "\u0120flash": 8486, "\u0120absorb": 8487, "\u0120hall": 8488, "oids": 8489, "\u0120Coll": 8490, "\u0120teens": 8491, "\u0120transmitted": 8492, "\u0120Harvard": 8493, "aneous": 8494, "adel": 8495, "\u0120ethical": 8496, "\u00c2\u00ae": 8497, "Who": 8498, "\u0120fur": 8499, "adow": 8500, "\u0120workplace": 8501, "va": 8502, "oys": 8503, "\u0120duty": 8504, "\u0120specialist": 8505, "\u0120mature": 8506, "\u0120Head": 8507, "\u0120pill": 8508, "ishop": 8509, "flamm": 8510, "iger": 8511, "\u0120forecast": 8512, "\u0120puzz": 8513, "Col": 8514, "assium": 8515, "\u0120loose": 8516, "\u0120globe": 8517, ":||": 8518, "\u0120Christians": 8519, "avirus": 8520, "\u0120Level": 8521, "\u0120saved": 8522, "\u0120empty": 8523, "\u0120Mot": 8524, "arb": 8525, "\u0120pilot": 8526, "\u0120ham": 8527, "yer": 8528, "\u0120barriers": 8529, "\u0120chair": 8530, "\u0120Vitamin": 8531, "-making": 8532, "\u0120vegetable": 8533, "EO": 8534, "\u0120evening": 8535, "\u0120cub": 8536, "\u0120cas": 8537, "\u0120sessions": 8538, "hemistry": 8539, "-ex": 8540, "\u0120fought": 8541, "\u0120Systems": 8542, "\u0120tribes": 8543, "\u0120asp": 8544, "\u0120sad": 8545, "-con": 8546, "\u0120planted": 8547, "-N": 8548, "\u0120districts": 8549, "onday": 8550, "opher": 8551, "uther": 8552, "\u0120sug": 8553, "\u0120membrane": 8554, "\u0120Last": 8555, "\u0120IV": 8556, "\u0120resistant": 8557, "\u0120verb": 8558, "\u0120dim": 8559, "\u0120Nov": 8560, "\u0120Battle": 8561, "izz": 8562, "\u0120asc": 8563, "\u0120elsewhere": 8564, "\u0120arguments": 8565, "Sim": 8566, "Please": 8567, "\u0120extension": 8568, "oons": 8569, "Ref": 8570, "EF": 8571, "\u0120equality": 8572, "IF": 8573, "astics": 8574, "\u0120passion": 8575, "\u00c3\u00a2": 8576, "\u0120Mah": 8577, "-en": 8578, "\u0120cul": 8579, "\u0120minds": 8580, "\u0120pion": 8581, "\u0120preced": 8582, "\u0120Ident": 8583, "\u0120degrad": 8584, "\u0120raising": 8585, "\u0120choosing": 8586, "\u0120handling": 8587, "\u0120Sar": 8588, "DS": 8589, "\u0120exploring": 8590, "\u0120span": 8591, "\u0120clients": 8592, "utation": 8593, "\u0120photographs": 8594, "play": 8595, "\u0120reaches": 8596, "\u0120traits": 8597, "\u0120HT": 8598, "\u0120friendly": 8599, "\u0120fet": 8600, "\u0120linear": 8601, "\u0120Islands": 8602, "\u0120origins": 8603, "\u0120Hor": 8604, "\u0120targeted": 8605, "\u0120trem": 8606, "\u0120duration": 8607, "Despite": 8608, "\u0120adapted": 8609, "',": 8610, "\u0120savings": 8611, "\u0120contributions": 8612, "\u0120Iran": 8613, "\u0120cow": 8614, "idal": 8615, "\u0120settled": 8616, "\u0120Solar": 8617, "\u0120dominant": 8618, "\u0120calculated": 8619, "ranean": 8620, "iments": 8621, "\u0120actively": 8622, "\u0120preferred": 8623, "\u0120Confed": 8624, "archy": 8625, "\u0120classical": 8626, "erts": 8627, "\u0120pel": 8628, "\u0120gardens": 8629, "\u0120Ice": 8630, "\u0120converted": 8631, "izers": 8632, "\u0120Agriculture": 8633, "/c": 8634, "rypt": 8635, "\u0120convey": 8636, "\u0120Kar": 8637, "\u0120funded": 8638, "\u0120bare": 8639, "\u0120newspaper": 8640, "unc": 8641, "kind": 8642, "\u0120phones": 8643, "lymp": 8644, "\u0120pace": 8645, "\u0120Model": 8646, "-W": 8647, "\u0120breaks": 8648, "rix": 8649, "\u0120controlling": 8650, "\u0120restore": 8651, "\u0120aggressive": 8652, "\u0120literally": 8653, "\u0120officer": 8654, "\u0120annually": 8655, "\u0120cheap": 8656, "\u0120exped": 8657, "real": 8658, "\u0120integration": 8659, "\u0120Edward": 8660, "\u0120Policy": 8661, "\u0120basically": 8662, "\u0120creativity": 8663, "\u0120overview": 8664, "imp": 8665, "\u0120shorter": 8666, "\u0120assignment": 8667, "\u0120nom": 8668, "\u0120specialized": 8669, "asma": 8670, "\u0120meaningful": 8671, "John": 8672, "\u0120noticed": 8673, "\u0120circulation": 8674, "\u0120ash": 8675, "Like": 8676, "\u0120swelling": 8677, "\u0120Oxford": 8678, "\u0120requirement": 8679, "\u0120frust": 8680, "rection": 8681, "\u0120Modern": 8682, "\u0120Little": 8683, "\u0120sulf": 8684, "asm": 8685, "\u0120Chapter": 8686, "\u0120hospitals": 8687, "\u0120songs": 8688, "\u0120rational": 8689, "\u0120Force": 8690, "\u0120classic": 8691, "\u0120coat": 8692, "\u0120arthritis": 8693, "\u0120profile": 8694, "\u0120calculate": 8695, "\u0120promise": 8696, "\u0120royal": 8697, "\u0120powder": 8698, "\u0120addresses": 8699, "\u0120Cell": 8700, "\u0120van": 8701, "\u0120incident": 8702, "\u0120Process": 8703, "\u0120resc": 8704, "Source": 8705, "\u0120currency": 8706, "\u0120union": 8707, "\u0120alarm": 8708, "usalem": 8709, "\u0120peer": 8710, "\u0120viral": 8711, "\u0120Gulf": 8712, "\u0120varies": 8713, "\u0120gent": 8714, "\u0120Writing": 8715, "\u0120tongue": 8716, "\u0120soils": 8717, "\u0120Key": 8718, "\u0120insights": 8719, "\u0120Division": 8720, "\u0120propag": 8721, "\u0120replacement": 8722, "\u0120wash": 8723, "\u0120SS": 8724, "\u0120sou": 8725, "\u0120unn": 8726, "\u0120clay": 8727, "\u0120marg": 8728, "ilst": 8729, "\u0120breaking": 8730, "-ray": 8731, "\u0120virtually": 8732, "orrect": 8733, "\u0120oxid": 8734, "CR": 8735, "\u0120Arts": 8736, "\u0120gly": 8737, "orig": 8738, "\u0120thyroid": 8739, "\u0120differ": 8740, "\u0120Amazon": 8741, "emb": 8742, "olves": 8743, "\u0120AM": 8744, "obile": 8745, "apes": 8746, "\u0120conclus": 8747, "\u0120attitude": 8748, "\u0120attribut": 8749, "\u0120violent": 8750, "reens": 8751, "\u0120chose": 8752, "\u0120Drug": 8753, "ori": 8754, "\u0120tomat": 8755, "erty": 8756, "\u0120outdoor": 8757, "\u0120chromos": 8758, "\u0120tone": 8759, "cule": 8760, "\u0120Bang": 8761, "\u0120View": 8762, "\u0120continuing": 8763, "ailed": 8764, "\u0120emerged": 8765, "\u0120Sunday": 8766, "\u0120tends": 8767, "Scient": 8768, "\u0120references": 8769, "ogy": 8770, "\u0120Francisco": 8771, "abling": 8772, "-shaped": 8773, "\u0120hat": 8774, "top": 8775, "\u0120engagement": 8776, "\u0120mouse": 8777, "icating": 8778, "urches": 8779, "\u0120reasonable": 8780, "\u0120Rh": 8781, "\u0120align": 8782, "\u0120soph": 8783, "\u0120Spir": 8784, "ologically": 8785, "\u0120\u00c2\u00a3": 8786, "\u0120sevent": 8787, "\u0120scenario": 8788, "ett": 8789, "\u0120Card": 8790, "\u0120Bul": 8791, "\u0120PDF": 8792, "\u0120accompanied": 8793, "\u0120Ol": 8794, "\u0120pairs": 8795, "kl": 8796, "ensed": 8797, "\u0120gathered": 8798, "\u0120surgical": 8799, "\u0120crown": 8800, "\u0120restaur": 8801, "\u0120appointed": 8802, "\u0120Lee": 8803, "\u0120facilitate": 8804, "\u0120soul": 8805, "iop": 8806, "sm": 8807, "unning": 8808, "\u0120worksheets": 8809, "\u0120wal": 8810, "\u0120paying": 8811, "\u0120occas": 8812, "\u0120Far": 8813, "%,": 8814, "endment": 8815, "\u0120dementia": 8816, "\u0120disadvant": 8817, "\u0120auto": 8818, "\u0120AL": 8819, "\u0120preparing": 8820, "chain": 8821, "\u0120couldn": 8822, "\u0120electrons": 8823, "\u0120Incre": 8824, "umer": 8825, "\u0120default": 8826, "rh": 8827, "\u0120bless": 8828, "\u0120accurately": 8829, "\u00e0\u00a5": 8830, "\u0120anticip": 8831, "\u0120livestock": 8832, "Com": 8833, "\u0120purchased": 8834, "\u0120Phot": 8835, "roud": 8836, "\u0120PM": 8837, "\u0120prescribed": 8838, "\u0120buff": 8839, "\u0120streams": 8840, "\u0120Spring": 8841, "\u0120Indones": 8842, "\u0120ID": 8843, "inning": 8844, "\u0120beat": 8845, "\u0120spr": 8846, "\u0120municip": 8847, "\u0120mammals": 8848, "\u0120sup": 8849, "\u0120Treatment": 8850, "urable": 8851, "\u0120dentist": 8852, "\u0120acting": 8853, "\u0120chicken": 8854, "rub": 8855, "\u0120ho": 8856, "zo": 8857, "arium": 8858, "rained": 8859, "ogens": 8860, "\u0120fascinating": 8861, "\u0120\u00c2\u00a9": 8862, "fast": 8863, "\u0120shore": 8864, "\u0120caps": 8865, "reation": 8866, "\u0120province": 8867, "\u0120discussions": 8868, "eeding": 8869, "\u0120buying": 8870, "Students": 8871, "akespe": 8872, "\u0120contents": 8873, "plate": 8874, "\u0120obst": 8875, "har": 8876, "wan": 8877, "\u0120versus": 8878, "ptic": 8879, "\u0120oils": 8880, "\u0120realized": 8881, "\u0120opinions": 8882, "\u0120sciences": 8883, "inois": 8884, "\u0120homework": 8885, "OM": 8886, "zyme": 8887, "chnology": 8888, "\u0120posts": 8889, "\u0120dil": 8890, "/m": 8891, "\u0120orders": 8892, "\u0120allergies": 8893, "\u0120vibr": 8894, "Two": 8895, "\u0120tension": 8896, "\u0120optimal": 8897, "\u0120inch": 8898, "regon": 8899, "aware": 8900, "\u0120tab": 8901, "estions": 8902, "\u0120advances": 8903, "Art": 8904, "\u0120begun": 8905, "\u0120ion": 8906, "\u0120optical": 8907, "\u0120Jerusalem": 8908, "\u0120Cr": 8909, "\u0120complexity": 8910, "\u0120readily": 8911, "\u0120embed": 8912, "uy": 8913, "\u0120practition": 8914, "\u0120prime": 8915, "\u0120Wil": 8916, "zymes": 8917, "\u0120wat": 8918, "\u0120healthier": 8919, "\u0120Wikipedia": 8920, "akespeare": 8921, "\u0120bene": 8922, "\u0120embry": 8923, "\u0120seriously": 8924, "\u0120oste": 8925, "assion": 8926, "\u0120Fact": 8927, "\u0120reveals": 8928, "\u0120LED": 8929, "\u0120glac": 8930, "\u0120Frid": 8931, "ener": 8932, "onal": 8933, "\u0120trace": 8934, "\u0120earthquake": 8935, "\u0120Analysis": 8936, "\u0120grounds": 8937, "\u0120enthus": 8938, "sen": 8939, "\u0120underground": 8940, "\u0120Independ": 8941, "\u0120severity": 8942, "'d": 8943, "\u0120copyright": 8944, "\u0120colony": 8945, "\u0120Saint": 8946, "amil": 8947, "\u0120assembly": 8948, "\u0120Digital": 8949, "\u0120hal": 8950, "\u0120bears": 8951, "\u0120anger": 8952, "\u0120themes": 8953, "\u0120partnership": 8954, "raine": 8955, "\u0120Dictionary": 8956, "\u0120integr": 8957, "\u0120returns": 8958, "ippi": 8959, "AB": 8960, "\u0120eleph": 8961, "\u0120Olymp": 8962, "\u0120neurons": 8963, "\u0120argued": 8964, "\u0120invasive": 8965, "\u0120endangered": 8966, "operative": 8967, "\u0120sleeping": 8968, "\u0120susceptible": 8969, "\u0120everywhere": 8970, "\u0120Mach": 8971, "\u0120varied": 8972, "\u0120parad": 8973, "\u0120suit": 8974, "\u0120attitudes": 8975, "\u0120genome": 8976, "\u0120chocolate": 8977, "\u0120paintings": 8978, "\u0120barrier": 8979, "\u0120entit": 8980, "\u0120Stan": 8981, "\u0120corresponding": 8982, "\u0120restoration": 8983, "\u0120efficiently": 8984, "\u0120Palest": 8985, "\u0120displayed": 8986, "\u0120Orig": 8987, "\u0120Need": 8988, "also": 8989, "\u0120Father": 8990, "elve": 8991, "\u0120Which": 8992, "\u0120limitations": 8993, "\u0120metabolism": 8994, "\u0120Los": 8995, "\u0120Wal": 8996, "\u0120lakes": 8997, "\u0120club": 8998, "\u0120winds": 8999, "\u0120reef": 9000, "ocity": 9001, "\u0120quantities": 9002, "ailable": 9003, "outheast": 9004, "\u0120maxim": 9005, "\u00e2\u0122\u013eI": 9006, "\u0120probability": 9007, "\u0120diets": 9008, "\u0120NO": 9009, "\u0120Impro": 9010, "\u0120competitive": 9011, "BN": 9012, "\u0120dropped": 9013, "you": 9014, "\u0120contributing": 9015, "\u0120brains": 9016, "icity": 9017, "\u0120developments": 9018, "\u0120Building": 9019, "\u0120accomplish": 9020, "icts": 9021, "\u0120perceived": 9022, "\u0120existed": 9023, "isations": 9024, "iations": 9025, "\u0120beneath": 9026, "\u0120hygiene": 9027, "\u0120hypothesis": 9028, "\u00c2\u00b0C": 9029, "oded": 9030, "\u0120Nob": 9031, "\u0120managers": 9032, "\u0120Farm": 9033, "\u0120productive": 9034, "\u0120debris": 9035, "\u0120tempor": 9036, "\u0120influences": 9037, "\u0120Heritage": 9038, "reprene": 9039, "\u0120CP": 9040, "\u0120recording": 9041, "\u0120Whether": 9042, "\u0120volunteers": 9043, "cin": 9044, "worm": 9045, "\u0120unlikely": 9046, "encing": 9047, "\u0120glob": 9048, "-inc": 9049, "\u0120Cub": 9050, "\u0120establishment": 9051, "\u0120precip": 9052, "\u0120Desc": 9053, "bec": 9054, "\u0120elementary": 9055, "\u0120Figure": 9056, "\u0120Microsoft": 9057, "\u0120deploy": 9058, "\u0120immigrants": 9059, "\u0120strike": 9060, "ritten": 9061, "\u0120motivation": 9062, "\u0120happiness": 9063, "\u0120DC": 9064, "\u0120mask": 9065, "\u0120surprise": 9066, "\u0120regulate": 9067, "hand": 9068, "ustainable": 9069, "\u0120sees": 9070, "\u0120Obama": 9071, "\u0120Remember": 9072, "rait": 9073, "\u0120gif": 9074, "aints": 9075, "Ke": 9076, "\u0120Code": 9077, "\u0120specified": 9078, "agan": 9079, "\u0120assumed": 9080, "\u0120alert": 9081, "box": 9082, "\u0120puts": 9083, "\u0120cooperation": 9084, "\u0120Bureau": 9085, "\u0120finish": 9086, "\u0120Gall": 9087, "\u0120Mid": 9088, "elly": 9089, "\u0120Trust": 9090, "\u0120Again": 9091, "\u0120registered": 9092, "\u0120prevalence": 9093, "\u0120qualities": 9094, "eutic": 9095, "\u0120calm": 9096, "omal": 9097, "\u0120Books": 9098, "ffe": 9099, "-off": 9100, "efin": 9101, "\u0120minimal": 9102, "\u0120profound": 9103, "ga": 9104, "\u0120TH": 9105, "asting": 9106, "\u0120impair": 9107, "\u0120Small": 9108, "\u0120Navy": 9109, "CL": 9110, "\u0120Town": 9111, "bow": 9112, "\u0120evident": 9113, "agen": 9114, "BM": 9115, "Then": 9116, "\u0120minimize": 9117, "\u0120Alaska": 9118, "\u0120pesticides": 9119, "\u0120Ve": 9120, "urricane": 9121, "\u0120Next": 9122, "\u0120accounting": 9123, "ifier": 9124, "onscious": 9125, "aterials": 9126, "\u0120acknowled": 9127, "Click": 9128, ".'": 9129, "\u0120bibl": 9130, "\u0120soy": 9131, "\u0120wars": 9132, "\u0120addressing": 9133, "\u0120joy": 9134, "\u0120FDA": 9135, "\u0120Creek": 9136, "ometer": 9137, "\u0120rainfall": 9138, "ico": 9139, "\u0120strategic": 9140, "\u0120labour": 9141, "\u0120Max": 9142, "\u0120diagram": 9143, "-est": 9144, "\u0120apps": 9145, "\u0120module": 9146, "\u0120scheme": 9147, "\u0120Philipp": 9148, "\u0120persu": 9149, "uan": 9150, "\u0120bron": 9151, "\u0120dramatically": 9152, "\u0120Islamic": 9153, "\u0120zones": 9154, "\u0120consciousness": 9155, "\u0120Often": 9156, "\u0120Mississ": 9157, "\u0120intention": 9158, "iler": 9159, "\u0120committee": 9160, "iders": 9161, "\u0120incent": 9162, "\u0120cream": 9163, "\u0120scat": 9164, "\u0120welfare": 9165, "aka": 9166, "bi": 9167, "\u0120suicide": 9168, "\u0120dism": 9169, "\u0120sale": 9170, "cyclopedia": 9171, "Health": 9172, "text": 9173, "\u0120representing": 9174, "\u0120hopes": 9175, "\u0120Portug": 9176, "\u0120analyzed": 9177, "mble": 9178, "\u0120Kent": 9179, "ideo": 9180, "\u0120possibilities": 9181, "\u0120sheep": 9182, "icking": 9183, "\u0120explicit": 9184, "\u0120discipline": 9185, "OD": 9186, "\u0120conversion": 9187, "\u0120suspect": 9188, "\u0120PhD": 9189, "\u0120rod": 9190, "inger": 9191, "\u0120knee": 9192, "\u0120privacy": 9193, "\u0120hydro": 9194, "\u0120algorithm": 9195, "raq": 9196, "best": 9197, "olt": 9198, "\u0120blank": 9199, "\u0120rooms": 9200, "\u0120involvement": 9201, "\u0120borrow": 9202, "\u0120particle": 9203, "\u0120flexibility": 9204, "\u0120spreading": 9205, "\u0120Antar": 9206, "\u0120therm": 9207, "\u0120opposition": 9208, "\u0120tact": 9209, "\u0120shr": 9210, "\u0120passes": 9211, "ocated": 9212, "\u0120subsc": 9213, "\u0120noun": 9214, "\u0120uncle": 9215, "\u0120Ram": 9216, "-American": 9217, "Rem": 9218, "\u0120CDC": 9219, "\u0120Page": 9220, "stru": 9221, "\u0120peers": 9222, "ackson": 9223, "rip": 9224, "\u0120initiatives": 9225, "Sm": 9226, ".n": 9227, "Gl": 9228, "May": 9229, "iterranean": 9230, "\u0120predicted": 9231, "\u0120wings": 9232, "\u0120suddenly": 9233, "\u0120appeal": 9234, "\u0120celeb": 9235, "rizona": 9236, "\u0120prox": 9237, "\u0120wooden": 9238, "\u0120strange": 9239, "orne": 9240, "\u0120popularity": 9241, "\u0120Christianity": 9242, "eras": 9243, "\u0120Parliament": 9244, "\u0120varying": 9245, "\u0120curve": 9246, "\u0120...\u010a": 9247, "zone": 9248, "\u0120tumors": 9249, "\u0120installation": 9250, "\u0120vom": 9251, "\u0120symptom": 9252, "\u0120reflected": 9253, "\u0120Effect": 9254, "ati": 9255, "\u0120alongside": 9256, "\u0120ranges": 9257, "\u0120package": 9258, "atoes": 9259, "\u0120collective": 9260, "\u0120reserved": 9261, "\u0120enjoyed": 9262, "\u0120oceans": 9263, "\u0120utility": 9264, "\u0120encouraging": 9265, "\u0120;": 9266, "\u0120salmon": 9267, "\u0120contaminated": 9268, "\u0120documented": 9269, "\u0120penet": 9270, "\u0120logical": 9271, "\u0120arise": 9272, "\u0120engineer": 9273, "\u0120alumin": 9274, "\u0120Being": 9275, "\u0120Century": 9276, "\u0120Alexander": 9277, "\u0120requiring": 9278, "\u0120password": 9279, "\u0120visits": 9280, "\u0120tom": 9281, "\u0120Justice": 9282, "%.": 9283, "sters": 9284, "\u0120amino": 9285, "raham": 9286, "thod": 9287, "issance": 9288, "\u0120burden": 9289, "\u0120rays": 9290, "\u0120Illinois": 9291, "\u0120tough": 9292, "olk": 9293, "\u0120fifth": 9294, "\u0120Twitter": 9295, "\u0120gift": 9296, "\u0120Physical": 9297, "oler": 9298, "\u0120Oregon": 9299, "\u0120sending": 9300, "\u0120dish": 9301, "\u0120incorporate": 9302, "regular": 9303, "\u0120perfectly": 9304, "\u0120Standard": 9305, "\u0120contamination": 9306, "\u0120dipl": 9307, "\u0120grams": 9308, "\u0120Several": 9309, "uity": 9310, "\u0120Place": 9311, "\u0120courts": 9312, ".;": 9313, "\u0120stere": 9314, "adelph": 9315, "\u0120designated": 9316, "cled": 9317, "\u0120containers": 9318, "\u0120circul": 9319, "\u0120lecture": 9320, "\u0120encounter": 9321, "\u0120visiting": 9322, "\u0120neurolog": 9323, "\u0120withdraw": 9324, "\u0120Week": 9325, "\u0120wise": 9326, "\u0120Var": 9327, "erving": 9328, "\u0120Hindu": 9329, "\u0120Friday": 9330, "Aut": 9331, "\u0120preserved": 9332, "\u0120Mexican": 9333, "\u0120doses": 9334, "\u0120sacred": 9335, "\u0120incidence": 9336, "EG": 9337, "\u0120Temple": 9338, "rand": 9339, "thew": 9340, "TH": 9341, "\u0120kitchen": 9342, "\u0120Lim": 9343, "ivities": 9344, "atus": 9345, "\u0120personnel": 9346, "\u0120invented": 9347, "\u0120Perhaps": 9348, "Sub": 9349, "enced": 9350, "\u0120kingdom": 9351, "\u0120stood": 9352, "\u0120Media": 9353, "rowth": 9354, "\u0120memor": 9355, "oca": 9356, "\u0120cycles": 9357, "\u0120prevents": 9358, "\u0120bullying": 9359, "\u0120accidents": 9360, "\u0120complement": 9361, "\u0120deer": 9362, "\u0120adopt": 9363, "\u0120pipe": 9364, "\u0120notion": 9365, "\u0120cellular": 9366, "\u0120cab": 9367, "arten": 9368, "ugs": 9369, "through": 9370, "\u0120Greece": 9371, "nia": 9372, "\u0120Having": 9373, "\u0120infectious": 9374, "healthy": 9375, "\u0120combine": 9376, "\u0120Look": 9377, "\u0120compos": 9378, "berries": 9379, "\u0120revers": 9380, "\u0120disk": 9381, "unar": 9382, "\u0120OS": 9383, "\u0120Andrew": 9384, "\u0120canal": 9385, "\u0120developmental": 9386, "],": 9387, "\u0120(\u00e2\u0122\u013e": 9388, "itus": 9389, "\u0120grammar": 9390, "\u0120rib": 9391, "\u0120Fred": 9392, "\u0120continent": 9393, "\u0120vig": 9394, "\u0120wing": 9395, "\u0120spoke": 9396, "\u0120attractive": 9397, ")||": 9398, "ifer": 9399, "\u0120Diet": 9400, "uis": 9401, "rin": 9402, "\u0120dict": 9403, "urse": 9404, "\u0120surprising": 9405, "\u0120Cop": 9406, "\u0120crack": 9407, "\u0120shoes": 9408, "\u0120spine": 9409, "\u0120bite": 9410, "\u0120candidate": 9411, "\u0120myself": 9412, "\u0120Cost": 9413, "\u0120Indeed": 9414, "uled": 9415, "\u0120clouds": 9416, "\u0120Vietnam": 9417, "omed": 9418, "\u0120hurt": 9419, "\u0120dried": 9420, "\u0120Fish": 9421, "\u0120applies": 9422, "\u0120elderly": 9423, "\u0120cyl": 9424, "ools": 9425, "\u0120theoretical": 9426, "\u0120Santa": 9427, "\u0120ow": 9428, "\u0120draft": 9429, "\u0120invention": 9430, "acles": 9431, "author": 9432, "\u0120reproductive": 9433, "pectives": 9434, "\u0120Later": 9435, "\u0120Gar": 9436, "\u0120bonds": 9437, "\u0120relate": 9438, "\u0120Invest": 9439, "\u0120bottle": 9440, "\u0120Due": 9441, "\u0120employee": 9442, "\u0120panc": 9443, "\u0120evolutionary": 9444, ".p": 9445, "\u0120Testament": 9446, "\u0120worker": 9447, "\u0120Area": 9448, "\u0120distinguish": 9449, "iner": 9450, "\u0120sensory": 9451, "\u0120pollut": 9452, "hester": 9453, "\u00e2\u0122\u013eIt": 9454, "roduct": 9455, "\u0120Proble": 9456, "\u0120mistakes": 9457, "\u0120restrictions": 9458, "\u0120totally": 9459, "\u0120improves": 9460, "\u0120ster": 9461, "\u0120fingers": 9462, "\u0120butterf": 9463, "\u0120scales": 9464, "\u0120alternatives": 9465, "\u0120indirect": 9466, "\u00d0\u00b0": 9467, "Sec": 9468, "\u0120identical": 9469, "\u0120cigare": 9470, "adelphia": 9471, "this": 9472, "\u0120excav": 9473, "Any": 9474, "\u0120magnitude": 9475, "\u0120athletes": 9476, "irable": 9477, "\u0120sediment": 9478, "\u0120summar": 9479, "aved": 9480, "ubble": 9481, "\u0120allergic": 9482, "\u0120Squ": 9483, "\u0120dimensions": 9484, "\u0120transferred": 9485, "RC": 9486, "eem": 9487, "\u0120Action": 9488, "\u0120consuming": 9489, "trans": 9490, "\u0120ownership": 9491, "onents": 9492, "ais": 9493, "\u0120exhibition": 9494, "uris": 9495, "\u0120whenever": 9496, "Eng": 9497, "\u0120Economic": 9498, "oving": 9499, "\u0120shoulder": 9500, "\u0120Article": 9501, "\u0120achieving": 9502, "\u0120channels": 9503, "omous": 9504, "\u0120sheets": 9505, "\u0120swimming": 9506, "\u0120Mediterranean": 9507, "terior": 9508, "\u0120ancestors": 9509, "\u0120apparently": 9510, "\u0120straw": 9511, "claim": 9512, "\u0120encl": 9513, "\u0120payment": 9514, "isting": 9515, "\u0120bags": 9516, "\u0120collections": 9517, "about": 9518, "\u0120legend": 9519, "ysical": 9520, "\u0120Nutrition": 9521, "\u0120browser": 9522, "\u0120ft": 9523, "\u0120cuts": 9524, "\u0120disturb": 9525, "\u0120suggestions": 9526, "\u0120dimin": 9527, "redit": 9528, "\u0120doors": 9529, "\u0120Mississippi": 9530, "rue": 9531, "\u0120medieval": 9532, "\u0120algorithms": 9533, "\u0120fiction": 9534, "\u0120platforms": 9535, "\u0120Station": 9536, "\u0120ultimate": 9537, "\u0120producers": 9538, "\u0120Conference": 9539, "\u0120pink": 9540, "\u0120conflicts": 9541, "\u0120occupied": 9542, "\u0120segment": 9543, "\u0120discharge": 9544, "\u0120Move": 9545, "\u0120neglect": 9546, "\u0120distant": 9547, "itical": 9548, "ika": 9549, "\u0120fraction": 9550, "\u0120bias": 9551, "bell": 9552, "\u0120outline": 9553, "orus": 9554, "\u0120expanding": 9555, "\u0120representative": 9556, "\u00d0\u00be": 9557, "ouri": 9558, "\u0120cheese": 9559, "EA": 9560, "ba": 9561, "\u0120Kh": 9562, "owered": 9563, "eling": 9564, "\u0120privile": 9565, "\u0120neural": 9566, "\u0124\u00ac": 9567, "havior": 9568, "\u0120irrigation": 9569, "\u0120valve": 9570, "\u0120fant": 9571, "\u0120plates": 9572, "\u0120Right": 9573, "-J": 9574, "ricks": 9575, "iano": 9576, "\u0120erosion": 9577, "\u0120Daniel": 9578, "\u0120bull": 9579, "ila": 9580, "\u0120gate": 9581, "\u0120absolutely": 9582, "\u0120bought": 9583, "\u0120Blood": 9584, "mann": 9585, "\u0120absorption": 9586, "\u0120repeat": 9587, "\u0120Emer": 9588, "\u0120corporate": 9589, "\u0120eaten": 9590, "\u0120ending": 9591, "\u0120instances": 9592, "\u0120predators": 9593, "\u0120Researchers": 9594, "\u0120stabil": 9595, "\u0120Arizona": 9596, "\u0120gods": 9597, "\u0120diagnostic": 9598, "\u0120Him": 9599, "\u0120unem": 9600, "-by": 9601, "Reg": 9602, "\u0120fitness": 9603, "\u0120lingu": 9604, "\u0120victory": 9605, "\u0120assistant": 9606, "enter": 9607, "\u0120injured": 9608, "\u0120muc": 9609, "\u0120revenue": 9610, "\u0120pose": 9611, "oline": 9612, "\u0120emit": 9613, "\u0120molecule": 9614, "\u0120gest": 9615, "\u0120Iraq": 9616, "\u0120Indigenous": 9617, "\u0120appl": 9618, "\u0120Norm": 9619, "\u0120elevated": 9620, "\u0120developers": 9621, "\u0120Fil": 9622, "\u0120repet": 9623, "\u0120surveys": 9624, "\u00c3\u00a4": 9625, "\u0120shares": 9626, "\u0120pale": 9627, "\u0120Garden": 9628, "pass": 9629, "Rel": 9630, "\u0120establishing": 9631, "ji": 9632, "aternal": 9633, "\u0120speaker": 9634, "lectric": 9635, "\u0120seiz": 9636, "ushing": 9637, "expected": 9638, "olph": 9639, "flu": 9640, "\u0120sister": 9641, "\u0120simultaneously": 9642, "\u0120memories": 9643, "\u0120potassium": 9644, "\u0120assert": 9645, "\u0120sew": 9646, "\u0120divide": 9647, "\u0120confident": 9648, "\u0120favour": 9649, "bour": 9650, "\u0120Monday": 9651, "ilson": 9652, "\u0120toxins": 9653, "\u0120copies": 9654, "\u0120enzymes": 9655, "\u0120oblig": 9656, "aping": 9657, "Research": 9658, "**": 9659, "OP": 9660, "\u0120deposits": 9661, "\u0120Unlike": 9662, "-quality": 9663, "Tra": 9664, "\u0120Dam": 9665, "\u0120magazine": 9666, "\u0120kg": 9667, "\u0120Muslims": 9668, "\u0120pine": 9669, "\u0120rough": 9670, "\u0120rh": 9671, "\u0120Hard": 9672, "iral": 9673, "\u0120Thanks": 9674, "\u0120assessments": 9675, "dd": 9676, "SP": 9677, "\u0120incorporated": 9678, "\u0120Table": 9679, "Up": 9680, "\u0120isolation": 9681, "\u0120abundant": 9682, "iography": 9683, "oked": 9684, "\u0120tracking": 9685, "\u0120beet": 9686, "emor": 9687, "\u0120wireless": 9688, "\u0120metabolic": 9689, "\u0120armed": 9690, "\u0120throw": 9691, "obic": 9692, "\u0120transc": 9693, "\u0120hybrid": 9694, "\u0120tag": 9695, "\u0120Rail": 9696, "\u0120inev": 9697, "\u0120shade": 9698, "ifice": 9699, "\u0120pneum": 9700, "\u0120stretch": 9701, "\u0120prosper": 9702, "\u0120burned": 9703, "ighth": 9704, "\u0120Lew": 9705, "\u0120weaken": 9706, "\u0120codes": 9707, "UL": 9708, "\u0120hung": 9709, "nesota": 9710, "\u0120beach": 9711, "\u0120occasionally": 9712, "\u0120minority": 9713, "\u0120amongst": 9714, "\u0120spatial": 9715, "\u0120kilometers": 9716, "-friendly": 9717, "\u0120certific": 9718, "\u0120sectors": 9719, ".The": 9720, "\u0120robots": 9721, "\u0120robust": 9722, "\u0120Fair": 9723, "\u0120Ha": 9724, "\u0120fluor": 9725, "\u0120churches": 9726, "\u0120register": 9727, "\u0120stems": 9728, "\u0120surrounded": 9729, "\u0120shelter": 9730, "\u0120villages": 9731, "\u0120equipped": 9732, "\u0120aside": 9733, "\u0120statistical": 9734, "\u0120Computer": 9735, "\u0120restricted": 9736, "\u0120permit": 9737, "\u00d0\u00b5": 9738, "\u0120carbohydrates": 9739, "\u0120seal": 9740, "imensional": 9741, "\u0120CH": 9742, "\u0120faculty": 9743, "\u0120busy": 9744, "medi": 9745, "\u0120synthetic": 9746, "ouses": 9747, "mental": 9748, "ceptions": 9749, "\u0120acceptable": 9750, "\u0120Bal": 9751, "\u0120confusion": 9752, "\u0120Pass": 9753, "\u0120hol": 9754, "\u0120Essay": 9755, "\u0120definitions": 9756, "\u0120loud": 9757, "\u0120separation": 9758, "mond": 9759, "iscipl": 9760, "\u0120utilized": 9761, "\u0120painted": 9762, "\u0120Music": 9763, "Ge": 9764, "aya": 9765, "\u0120prescription": 9766, "\u0120ber": 9767, "\u0120Pain": 9768, "DL": 9769, "\u0120atmospheric": 9770, "\u0120inherent": 9771, "\u0120prone": 9772, "\u0120CT": 9773, "\u0120prolong": 9774, "\u0120Convention": 9775, "\u0120likel": 9776, "inator": 9777, "\u0120Wales": 9778, "\u0120attributed": 9779, "\u0120Based": 9780, "\u0120toile": 9781, "\u0120economics": 9782, "otypes": 9783, "\u0120ruled": 9784, "\u0120honest": 9785, "\u0120collapse": 9786, "\u0120Wed": 9787, "\u0120wake": 9788, "\u0120Product": 9789, "Through": 9790, "uce": 9791, "\u0120till": 9792, ".M": 9793, "\u0120influenza": 9794, "duate": 9795, "\u0120survived": 9796, "\u0120descend": 9797, "anwhile": 9798, "\u0120accord": 9799, "\u0120meetings": 9800, "\u0120onset": 9801, "\u0120discom": 9802, "\u0120flavor": 9803, "\u0120herself": 9804, "\"We": 9805, "\u0120dying": 9806, "strial": 9807, "zer": 9808, "\u0120reflects": 9809, "\u0120physicians": 9810, "\u0120imagination": 9811, "\u0120hazards": 9812, "\u0120avoiding": 9813, "\u0120factory": 9814, "\u0120Standards": 9815, "\u0120Schools": 9816, "rics": 9817, "\u0120describing": 9818, "\u00c3\u00b1": 9819, "\u0120struggling": 9820, "utical": 9821, "\u0120indoor": 9822, "\u0120prayer": 9823, "Children": 9824, "\u00e3\u0123": 9825, "\u0120fatal": 9826, "\u0120Ont": 9827, "\u0120residential": 9828, "\u0120campus": 9829, "\u0120proposal": 9830, "\u0120inhabitants": 9831, "\u0120)": 9832, "\u0120vaccination": 9833, "\u0120highlights": 9834, "ghan": 9835, "isticated": 9836, "\u0120Chief": 9837, "\u0120verte": 9838, "enda": 9839, "\u0120nursing": 9840, "\u0120estate": 9841, "sembly": 9842, "\u0120ADHD": 9843, "\u0120germ": 9844, "ologic": 9845, "ooked": 9846, "\u0120collecting": 9847, "\u0120calendar": 9848, "uscript": 9849, "-or": 9850, "\u0120organism": 9851, "\u0120Field": 9852, "\u0120numer": 9853, "\u0120Fed": 9854, "\u0120Consider": 9855, "\u0120workshop": 9856, "\u0120Lat": 9857, "\u0120pert": 9858, "\u0120Philadelphia": 9859, "vation": 9860, "\u0120reflection": 9861, "\u0120Paper": 9862, "\u0120Should": 9863, "ctu": 9864, "\u0120absorbed": 9865, "\u0120reign": 9866, "\u0120extraord": 9867, "was": 9868, "\u0120edges": 9869, "\u0120cable": 9870, "\u0120desk": 9871, "\u0120width": 9872, "\u0120operated": 9873, "QL": 9874, "\u0120abandoned": 9875, "\u0120es": 9876, "Post": 9877, "\u0120predom": 9878, "osaur": 9879, "\u0120resemb": 9880, "\u0120flooding": 9881, "nea": 9882, "\u0120spark": 9883, "\u0120Main": 9884, "iances": 9885, "\u0120humidity": 9886, "\u0120films": 9887, "heck": 9888, "itic": 9889, "\u0120citizen": 9890, "\u0120subsid": 9891, "\u0120displays": 9892, "\u0120Support": 9893, "\u0120diarrhea": 9894, "\u0120Print": 9895, "\u0120Connect": 9896, "\u0120lob": 9897, "\u0120scholar": 9898, "\u0120ul": 9899, "awa": 9900, "\u0120guarantee": 9901, "orer": 9902, "\u0120partial": 9903, "\u0120Historical": 9904, "pert": 9905, "\u0120precisely": 9906, "\u0120entitled": 9907, "\u0120bell": 9908, "\u0120appointment": 9909, "\u0120tower": 9910, "\u0120fertilizer": 9911, "\u0120civilization": 9912, "ctors": 9913, "\u0120retail": 9914, "economic": 9915, "\u0120Hum": 9916, "\u0120officially": 9917, "\u0120Poly": 9918, "\u0120cave": 9919, "arks": 9920, "\u0120Put": 9921, "\u0120GDP": 9922, "\u0120Mountain": 9923, "\u0120Son": 9924, "\u0120finance": 9925, "\u0120Cambridge": 9926, "\u0120proud": 9927, "\u0120responsibilities": 9928, "ypically": 9929, "\u0120Secretary": 9930, "\u0120semi": 9931, "\u0120abundance": 9932, "inery": 9933, "\u0120Biology": 9934, "estone": 9935, "\u0120Java": 9936, "\u0120Rest": 9937, "\u0120enhanced": 9938, "bel": 9939, "coin": 9940, "\u0120gray": 9941, "stant": 9942, "\u0120Brain": 9943, "\u0120Apple": 9944, "\u0120Senate": 9945, "\u0120Mic": 9946, "\u0120weekly": 9947, "\u0120Jackson": 9948, "rium": 9949, "uilt": 9950, "inth": 9951, "\u0120broader": 9952, "\u0120welcome": 9953, "\u0120Hence": 9954, "\u0120STEM": 9955, "\u0120pond": 9956, "\u0120selling": 9957, "ivation": 9958, "\u0120Ba": 9959, "\u0120frag": 9960, "engers": 9961, "arios": 9962, "\u0120affordable": 9963, "\u0120merch": 9964, "\u0120Others": 9965, "\u0120likelihood": 9966, "\u0120Angeles": 9967, "\u0120implementing": 9968, "inates": 9969, "rons": 9970, "\u0120candidates": 9971, "\u0120consistently": 9972, "orters": 9973, "\u0120pod": 9974, "\u0120drops": 9975, "\u0120trading": 9976, "-dr": 9977, "Rep": 9978, "\u0120drives": 9979, "\u0120Assessment": 9980, "\u0120enzyme": 9981, "\u0120Marine": 9982, "\u0120Van": 9983, "\u0120reasoning": 9984, "\u0120horizontal": 9985, "ethe": 9986, "velength": 9987, "afe": 9988, "\u0120mile": 9989, "\u0120Commons": 9990, "\u0120Scientists": 9991, "yt": 9992, "\u0120regulatory": 9993, "\u0120vag": 9994, "\u0120parks": 9995, "\u0120nerves": 9996, "uesday": 9997, "swe": 9998, "\u0120myster": 9999, "\u0120surviv": 10000, "\u0120pediatric": 10001, "\u0120designing": 10002, "\u0120Practice": 10003, "\u0120teaches": 10004, "\u0120grad": 10005, "\u0120somewhere": 10006, "\u0120fibers": 10007, "\u0120Line": 10008, "\u0120velocity": 10009, "\u0120suggesting": 10010, "\u0120Ministry": 10011, "\u0120Capt": 10012, "\u0120spons": 10013, "-col": 10014, "mented": 10015, "fe": 10016, "\u0120thrive": 10017, "mentation": 10018, "\u0120rom": 10019, "\u0120discomfort": 10020, "\u0120strains": 10021, "\u0120deadly": 10022, "\u0120transformation": 10023, "\u0120toys": 10024, "\u0120Teachers": 10025, "ogram": 10026, "bury": 10027, "\u0120landing": 10028, "stic": 10029, "\u0120fluids": 10030, "\u0120regime": 10031, "ergarten": 10032, "\u0120radi": 10033, "\u0120heaven": 10034, "\u0120washing": 10035, "\u0120retain": 10036, "\u0120chamber": 10037, "\u0120tort": 10038, "\u0120classification": 10039, "\u0120Egyptian": 10040, "\u0120speeds": 10041, "\u0120posted": 10042, "ipation": 10043, "\u0120appreciate": 10044, "\u0120relating": 10045, "Ac": 10046, "\u0120loan": 10047, "\u0120pests": 10048, "\u0120adoption": 10049, "imen": 10050, "\u0120Sud": 10051, "itzer": 10052, "ateral": 10053, "\u0120boxes": 10054, "\u0120consequence": 10055, "\u0120Mur": 10056, "\u0120anthrop": 10057, "dominal": 10058, "\u0120speakers": 10059, "\u0120perpet": 10060, "\u0120reviewed": 10061, "\u0120Aff": 10062, "\u0120adolescents": 10063, "igible": 10064, "\u0120heal": 10065, "Ne": 10066, "\u0120receives": 10067, "\u0120enforcement": 10068, "\u0120translated": 10069, "\u0120distract": 10070, "\u0120mail": 10071, "\u0120Mess": 10072, "\u0120satisfact": 10073, "\u0120worn": 10074, "\u0120excited": 10075, "ador": 10076, "http": 10077, "\u0120legit": 10078, "\u0120Map": 10079, "\u0120circular": 10080, "\u0120lawn": 10081, "\u0120Minnesota": 10082, "\u0120arrival": 10083, "\u0120reputation": 10084, "iro": 10085, "eller": 10086, "\u0120pock": 10087, "\u0120Moses": 10088, "thur": 10089, "\u0120allergy": 10090, "ntil": 10091, "ught": 10092, "ursday": 10093, "\u0120nic": 10094, "aceutical": 10095, "Co": 10096, "\u0120algae": 10097, "\u0120Section": 10098, "\u0120conclusions": 10099, "nesday": 10100, "quiry": 10101, "\u0120nodes": 10102, "\u0120inflation": 10103, "\u0120consisting": 10104, "\u0120loop": 10105, "\u0120colored": 10106, "\u0120vine": 10107, "\u0120Hyd": 10108, "ublished": 10109, "erness": 10110, "\u0120appet": 10111, ".E": 10112, "ois": 10113, "\u0120schem": 10114, "early": 10115, "\u0120bark": 10116, "\u0120refrig": 10117, "rible": 10118, "atching": 10119, "\u0120multipl": 10120, "Have": 10121, "\u0120Centers": 10122, "\u0120Master": 10123, "\u0120disin": 10124, "\u0120Iss": 10125, "\u0120Grade": 10126, "\u0120NOT": 10127, "\u0120SP": 10128, "\u0120fan": 10129, "\u0120lasting": 10130, "\u0120sons": 10131, "\u0120importantly": 10132, "-int": 10133, "\u0120mutations": 10134, "western": 10135, "\u0120Examples": 10136, "phones": 10137, "\u0120recommends": 10138, "\u0120trail": 10139, "\u0120connecting": 10140, "even": 10141, ".html": 10142, "\u0120celebration": 10143, "\u0120Rather": 10144, "\u0120impressive": 10145, "\u0120invasion": 10146, "\u0120anat": 10147, "\u0120refused": 10148, "\u0120electronics": 10149, "yes": 10150, "\u0120Tenn": 10151, "\u0120encourages": 10152, "\u0120antibodies": 10153, "\u0120Die": 10154, "\u0120Sus": 10155, "\u0120Ancient": 10156, "\u0120seasonal": 10157, "\u0120broke": 10158, "borne": 10159, "\u0120evaluated": 10160, "\u0120tendency": 10161, "\u0120Maryland": 10162, "\u0120entreprene": 10163, "\u0120reviews": 10164, "iosity": 10165, "\u0120Occ": 10166, "\u0120investments": 10167, "\u0120pest": 10168, "\u0120beam": 10169, "\u0120convenient": 10170, "lude": 10171, "\u0120Crit": 10172, "OW": 10173, "\u0120Colon": 10174, "\u0120awarded": 10175, "\u0120placing": 10176, "\u0120sophisticated": 10177, "rust": 10178, "anz": 10179, "\u0120traveling": 10180, "-specific": 10181, "ilitation": 10182, "jud": 10183, "\u0120GM": 10184, "\u0120update": 10185, "\u0120missions": 10186, "\u0120Yes": 10187, "\u0120rehab": 10188, "\u0120Uk": 10189, "-class": 10190, "\u0120extinction": 10191, "doors": 10192, "\u0120AT": 10193, "\u0120disag": 10194, "\u0120Major": 10195, "oa": 10196, "\u0120socio": 10197, "\u0120RNA": 10198, "inces": 10199, "\u0120cameras": 10200, "\u0120integrity": 10201, "ermat": 10202, "\u0120safer": 10203, "\u0120consent": 10204, "\u0120storms": 10205, "\u0120striking": 10206, "\u0120Best": 10207, "\u0120provision": 10208, "\u0120intensive": 10209, "Car": 10210, "\u0120participating": 10211, "after": 10212, "\u0120independently": 10213, "\u0120arc": 10214, "\u0120therapies": 10215, "\u0120attempted": 10216, "PV": 10217, "\u0120Mind": 10218, "\u0120jaw": 10219, "\u0120gums": 10220, "tra": 10221, "ttes": 10222, "ictions": 10223, "duction": 10224, "\u0120camps": 10225, "\u0120Ell": 10226, "\u0120meteor": 10227, "\u0120pou": 10228, "ela": 10229, "\u0120carries": 10230, "\u0120unexpected": 10231, "\u0120meter": 10232, "\u0120gaps": 10233, "\u0120Missouri": 10234, "\u0120judgment": 10235, "\u0120Prim": 10236, "\u0120punishment": 10237, "\u0120spelling": 10238, ",\u00e2\u0122\u013b": 10239, "atile": 10240, "rose": 10241, "\u0120therapeutic": 10242, "\u0120hack": 10243, "\u0120Ide": 10244, "verages": 10245, "\u0120Carib": 10246, "\u0120attributes": 10247, "onics": 10248, "\u0120Jersey": 10249, "\u0120Name": 10250, "\u0120shallow": 10251, "\u0120cycl": 10252, "\u0120promising": 10253, "\u0120Walk": 10254, "\u0120hier": 10255, "\u0120Student": 10256, "\u0120monthly": 10257, "\u0120thoroughly": 10258, "\u0120vomiting": 10259, "\u00d8\u00a7": 10260, "\u0120reservoir": 10261, "\u0120acquire": 10262, "develop": 10263, "\u0120Training": 10264, "-hand": 10265, "\u0120Offic": 10266, "\u0120Self": 10267, "\u0120epidemic": 10268, "\u0120dynamics": 10269, "\u0120tourism": 10270, "\u0120cited": 10271, "\u0120cosm": 10272, "\u0120Think": 10273, "\u0120Between": 10274, "ropol": 10275, "\u0120Jacob": 10276, "\u0120cloth": 10277, "ashed": 10278, "\u0120magnesium": 10279, "itate": 10280, "\u0120minister": 10281, "\u0120attended": 10282, "\u0120MP": 10283, "\u0120ninet": 10284, "\u0120elections": 10285, "RS": 10286, "\u0120defines": 10287, "\u0120offices": 10288, "Yes": 10289, "\u0120transplant": 10290, "-income": 10291, "being": 10292, "raid": 10293, "\u0120Hit": 10294, "\u0120confused": 10295, "\u0120struck": 10296, "\u0120bills": 10297, "dess": 10298, "luded": 10299, "ulture": 10300, "\u0120partially": 10301, "\u0120shouldn": 10302, "----": 10303, "esthetic": 10304, "\u0120classrooms": 10305, "\u0120rocket": 10306, "ATION": 10307, "\u0120CA": 10308, "National": 10309, "\u0120settlers": 10310, "\u0120buck": 10311, "\u0120hide": 10312, "\u0120jew": 10313,
[...]
